000000000000011011111111111111011111111111101101111111111110011011111111111111011111111111101100111111111111011011111111110101110000000000000101111111111111100100000000000111011111111111110001111111111111010100000000000000010000000000000011000000000000100111111111111101111111111111111110111111111111000111111111111100110000000000000000111111111111001011111111111100000000000000001111111111111111000100000000000100110000000000000000111111111110011011111111111111000000000000001100111111111111010011111111111111110000000000001001000000000001011000000000000100011111111111100001000000000011011011111111111100011111111111101101111111111110110100000000000000101111111111100110000000000000100000000000000001000000000000010000111111111110001011111111110111011111111111111110111111111111100011111111110100111111111111111010000000000000011011111111111101110000000000001011111111111111000000000000000000101111111111111101111111111111110111111111111100111111111111110110111111111110101111111111111101101111111111100101111111111111111111111111111010001111111111100001000000000000100111111111111110110000000000111101000000000000010011111111111101101111111111100100000000000000001111111111111111000000000000000011111111111111010100000000000000101111111111110011000000000001010100000000000000101111111111111100111111111111110000000000000001111111111111111111000000000010110000000000000000001111111111111001111111111101101000000000000011000000000000010000000000000001110100000000000000100000000000011110111111111110111000000000000001100000000000000011111111111110110011111111111011001111111111111000111111111111110011111111111011011111111111101111111111111111001011111111111110001111111111111010111111111111010011111111111110001111111111110011111111111111010111111111111101001111111111110101000000000000100100000000000100100000000000000111000000000000011100000000000000100000000000000101111111111110100111111111111000101111111111101010