111111111111101111111111111111111111111111001101111111111111010000000000000101001111111111011101111111111101100011111111111010010000000000000010000000000011001100000000000000000000000000000101000000000000101000000000001000101111111111000001000000000001100011111111111110101111111111100001000000000001011000000000000011110000000000010011000000000000110100000000000011000000000000000101111111111110111011111111110111011111111111101001000000000001110111111111110110101111111111111000000000000000100011111111111101111111111111110000111111111101010000000000000101100000000000001110000000000001011111111111111101111111111111101011000000000010101111111111111000011111111111001000000000000001000111111111111111000000000000001000000000000000100111111111111111110000000000111011111111111111010011111111111001000000000000010111000000000000011100000000000011011111111111011010000000000000010011111111110101101111111111110101111111111101011100000000000100010000000000010000000000000100001100000000001111001111111111100010111111111111111111111111111101100000000000101100000000000001011011111111111011010000000000001010111111111111111111111111110011000000000000000001111111111101010000000000001101101111111111110101000000000001100000000000000110101111111111100001000000000010001111111111111000101111111111101011000000000000100000000000001100101111111111011101