1111111111101011000000000001011011111111110111111111111111001110000000000001000111111111011101111111111111100011111111111111001011111111111000110000000000001111000000000000010100000000000101100000000000010111111111111110011011111111101111011111111111110100000000000010001100000000000110100000000000110010000000000000101111111111111011000000000000011111000000000001101100000000001011110000000000111110
0000000000011110000000000011110100000000001001100000000001000010000000000001001000000000000011111111111111110110000000000000110011111111111011011111111111001111000000000001111011111111111100001111111111110010000000000001000000000000010110101111111111101001111111111110100000000000000011111111111111111110000000000000111011111111100111011111111110011001111111111010101011111111101100101111111110110111
1111111111100111000000000010001000000000000101001111111111111110111111111110110100000000001000001111111111110000000000000000010100000000000110100000000001100011111111111110010000000000001000011111111111110111111111111110000000000000000010001111111111010011111111111100010111111111110001111111111110110101111111111100001100000000001001001111111111100110111111111101110100000000000001000000000000110001
1111111111110110000000000000110111111111111000010000000000100000111111111111010000000000000011011111111111001101111111111100101000000000001010100000000000111000000000000001101100000000000000010000000000000000000000000100001000000000001010000000000000110110111111111111011011111111110010101111111110010010111111110111111011111111111010101111111110111010111111111110101100000000000100110000000000100001
0000000000100111111111111100100011111111111101001111111111101011000000000010010011111111110000011111111111010100111111111111000100000000000000100000000000011111111111111111001000000000001011010000000000011001111111111010101011111111111000000000000000011010000000000001110011111111111010110000000000001100111111111110010111111111111110111111111111100111111111111101011000000000010000100000000001001011
0000000000101101000000000001001011111111101110111111111111110000000000000000010000000000000100001111111111101111000000000001000111111111111100011111111111111110000000000000011100000000000011110000000000110011111111111100111111111111101000010000000000001001111111111111001000000000000011000000000000011011000000000001010000000000011010110000000000010011111111111110001011111111110101010000000000011101
0000000000111100111111111111110100000000001001101111111111111110000000000001111000000000001110011111111111110011000000000000110000000000000110110000000000000101000000000001000100000000000011011111111111010101111111111110000011111111110100100000000000100100111111111110111111111111101111100000000000011111000000000010011011111111111100000000000000001100111111111111110111111111110010101111111111011011
1111111110111000111111111100100000000000000000010000000001011110000000000010101100000000001101000000000000001011000000000000000000000000000001111111111111110001111111111110100011111111111100011111111111100100111111111111100011111111111011111111111110110001111111111110010111111111110010101111111111001110111111111001011100000000000110001111111111101001000000000000110011111111111111110000000000000110
0000000000010001000000000000000100000000001001100000000000001011000000000000111100000000000100010000000000010111000000000001000000000000000100110000000001000011111111111001000100000000001010110000000000010000111111111110001111111111111100111111111111111101111111111101110011111111111010111111111111100011111111111101110100000000000100000000000000111111000000000010000100000000000000111111111110111100
0000000001000001000000000001100011111111111110101111111110110000111111111111100100000000001001001111111111011101111111111111101011111111111111011111111111110101000000000000101011111111110101011111111111101010000000000010110100000000001010011111111111100000000000000000100011111111111011100000000000101101111111111100110111111111110100000000000000010000111111111110111111111111110111001111111110101101
1111111111110101111111111100110111111111111101111111111111100001111111111011001111111111111010001111111111010010111111111111011011111111111100110000000000000100000000000000000011111111111110100000000000001111000000000000111111111111111111000000000001111000000000000010001111111111111000011111111110111110111111111010011100000000000101101111111111011110111111111111001111111111111110010000000000101101
0000000000001100000000000010110100000000001000110000000000000011111111111111010000000000000101011111111111000011111111111111011100000000000101000000000000000101111111111111000000000000000000010000000000100011000000000111000000000000010100000000000000000001000000000000100011111111111101011111111111110011111111111100101011111111110110111111111111001000111111111000000011111111111011110000000000010100
1111111110111000111111111110001111111111111001000000000000010111000000000101100000000000001100000000000000101100000000000000101100000000000001010000000000000001000000000011001100000000000000001111111110101110111111111101100111111111111100000000000000001010111111111111001011111111110001110000000000011101000000000101011111111111111111111111111111110110000000000000000000000000001010001111111111001011
0000000000010000000000000010101100000000001001101111111111010110000000000000001111111111111110101111111111110010111111111110101100000000001000111111111111001101111111111111010111111111111011100000000000111011000000000011100000000000001000000000000000010001111111111111100100000000001001111111111111111101000000000000010100000000001101000000000000011001111111111110100111111111110011001111111101110011
0000000000010100000000000010010000000000001100010000000000100010111111111101010000000000010010100000000000001111000000000001000000000000001010100000000001000101111111111111110011111111110111101111111111011100111111111110001000000000000010011111111111111101000000000000111100000000000001100000000001001000000000000001011111111111111001111111111111110111111111111101010011111111110011111111111111000000
0000000000001010111111111111101111111111111000111111111111111111000000000001011000000000000111110000000000001110111111111111100011111111111010111111111111101100000000000010101000000000000011010000000000000101111111111110110011111111110000100000000000101000000000000010001011111111110101101111111111001011000000000011111100000000001100010000000000011011000000000001011011111111111101011111111111110101