0000000000100100111111111101011100000000011001010000000000001011111111111111010100000000000010110000000001100000000000000000001100000000000111111111111111110011111111111111101000000000001000101111111111100001000000000000010111111111110001011111111111000010111111111111111100000000001011011111111111011110111111111101111100000000000100100000000000011010000000000010010111111111111110011111111111100111
0000000001001000000000000000100011111111111101001111111111101000000000000000100000000000000001001111111111110011111111111110100011111111111000000000000000000110000000000011011100000000001100000000000000100010000000000001001000000000000000110000000000010000111111111111111111111111111010000000000000111001000000000011000100000000000100100000000000000100000000000001110111111111111110000000000000010010
1111111111101011000000000000010000000000001100000000000000100101000000000011011100000000000001001111111111100100000000000111001111111111111001011111111111000000000000000010010100000000000010100000000001000111111111111100001100000000000000100000000000101111000000000010000100000000001100000000000000001011000000000000011000000000010101000000000000000111111111111100111111111111100010111111111111101001
0000000000001000111111111111101011111111110001101111111111011011111111111111011011111111110011100000000000011101111111111111100011111111110101001111111111110000000000000000101100000000001101100000000000100111111111111110110100000000010000100000000000001001000000000100011100000000000100001111111111111101000000000011001111111111111101000000000000111011111111111111001011111111110010011111111111100001
1111111111100111111111111110111100000000000110001111111110010101111111111110011000000000000000110000000000011101000000000010001100000000000100010000000000110110000000000000011111111111111100100000000000010101000000000100000000000000010000110000000000001010111111111101001000000000000100110000000001000011000000000001111100000000000111000000000000101100000000000001110111111111111111111111111111100101
1111111111111000111111111100001100000000000111110000000000101111000000000001001111111111111100101111111111111000000000000000000100000000000011111111111111100011111111111110010011111111110010111111111111000100111111111100011111111111101010011111111111010101111111111101000011111111100110111111111110111000111111111101110011111111110001000000000000011110000000000010100011111111111111001111111111110100
1111111111101101111111111111110111111111111111010000000001010000000000000011010000000000000001010000000000000100111111111100110000000000001111100000000001010101000000000001111011111111101111011111111111000001000000000000100111111111111010011111111111110111000000000001011111111111110110000000000000001000111111111110110011111111111000001111111111101001000000000011100000000000000101001111111111110110
1111111111010100000000000000100000000000000011000000000000001111000000000000110000000000010010110000000000100111111111111101010100000000000001111111111111101110000000000110101100000000000100001111111111011011000000000001011100000000000000010000000000001000000000000010001000000000001000100000000000110100000000000011101011111111100110001111111111001010000000000001100000000000000101111111111111011100
0000000000000011111111111110100111111111111111110000000000110101000000000100001100000000000000111111111111001100000000000100010011111111110000001111111110111010111111111111100011111111110001101111111111101011111111111101001111111111110011010000000000101101000000000001001011111111111011011111111111101011111111111101101000000000000010110000000000001000111111111101100011111111111101011111111111000011
0000000000000101111111111110110111111111110100010000000000100001000000000010001100000000000011101111111111100111111111111001010000000000001010111111111111110110000000000011010011111111111001101111111111001001111111111111011000000000001011111111111111100010111111111101010111111111111111110000000000010111111111111111100100000000000001101111111111101010111111111111001111111111110111010000000000100110
1111111111011101111111111010100011111111110100100000000000000001111111111110110111111111110111100000000000101000000000000001100100000000001100010000000000010111111111111111110000000000000101111111111111100000000000000011011000000000000101001111111111101110111111111111111111111111111110110000000000011010111111111100101000000000001111100000000000100101000000000001011011111111111111011111111110101100
0000000000001011000000000011110111111111111111100000000000101010000000000010001011111111110101011111111111111101000000000000011011111111110011110000000000001100111111111101011000000000000010011111111111110000111111111110011100000000001001011111111111111100000000000000100111111111111100010000000000101100000000000110011100000000010010101111111111111110111111111111110000000000000110100000000000110110
1111111111101010000000000001110000000000010001001111111111111000000000000001101100000000000100010000000000010010000000000010010000000000001111000000000001110111000000000011100011111111110111000000000000001110000000000001011000000000010000001111111111100111111111111110110111111111111000001111111111011001000000000011011011111111111011110000000000000010111111111111101111111111110101011111111111110100
0000000000001001111111111101001000000000000000101111111111110101000000000010000111111111111010101111111111000010111111111011011011111111110110110000000000010001111111111100100011111111101110011111111110111001111111111011000000000000000001111111111110110101111111111011111011111111101111111111111111100010000000000000011011111111110000011111111111010100000000000001111100000000000100100000000000001100
1111111111100011000000000000101011111111111100100000000000100101000000000010010111111111111111001111111111111010111111111110100111111111111110000000000000101000000000000000000011111111110100011111111110001101000000000000110000000000001000101111111111110100111111111110111000000000000010000000000000010100000000000001001000000000000010011111111111101100000000000010001000000000000110000000000000100101
0000000000000111111111111111111000000000000011000000000000010101000000000010110011111111111011101111111111011110111111111101110011111111111100011111111111000101000000000011110100000000001101010000000000001011000000000010111011111111110101100000000000100001000000000000011100000000001101101111111111000101111111111100111011111111101011111111111111110001000000000100000011111111111110101111111110110000