0000000000000100000000000000100100000000000101010000000000011011000000000001011000000000000111100000000000010100000000000000010100000000000000110000000000010111000000000011100000000000001110101111111111011111111111111111001100000000000011010000000000010010111111111101111011111111101000111111111111111000000000000000110011111111100101101111111110101111111111111101011100000000001000010000000000100100
0000000000001011000000000001100100000000000110100000000000110100000000000010101100000000000001110000000000001001111111111110001000000000000101010000000000110100000000000011001100000000000000111111111110001110111111111100000111111111111110101111111110000110111111111101010011111111100110011111111111001110000000000000000111111111110011110000000000010100111111111100110011111111111010111111111111110010
0000000000101010000000000001010111111111111111101111111110101111111111111110101111111111111000000000000000000101111111111110001111111111101000111111111111101111000000000000010000000000000010111111111110010101111111111100011000000000001010101111111111011010111111111011101111111111100111110000000000101001000000000011011111111111011101111111111111000110000000000010010100000000001000100000000000101100
0000000000011110000000000000010011111111111101001111111111010000111111111101111111111111111100010000000000000000111111111111101111111111111111001111111111111000111111111110111111111111111111001111111110011010111111111111111100000000000101011111111110110101111111110110100011111111111110010000000000100111000000000100010111111111110000010000000000100110111111111111111000000000001001010000000000111001
1111111111111111111111111111101111111111011101111111111101011101000000000011001111111111110011011111111111100111111111111001100111111111010101110000000001001000111111111100101011111111111001101111111111101011111111111010111100000000001001001111111110110110111111111100010011111111111001011111111110101000000000000010111011111111101101111111111111011101000000000000010100000000000000100000000000011011
0000000000001011000000000001100000000000000011010000000000100000000000000010011111111111111111110000000000010010111111111111001111111111101001011111111110110100111111111101100011111111011111111111111110101101111111111011011011111111100100001111111111110101000000000000010100000000000001010000000000001111000000000000001000000000000011100000000000101000000000000001001000000000000011111111111111111100