0000000000001100000000000000010111111111111110001111111111101110111111111111110100000000000001100000000000001011111111111111101111111111111000011111111111101101000000000001111100000000000110000000000000000001111111111110010011111111111011111111111111101010000000000001010000000000000000111111111111110100111111111110010100000000000000101111111111111001000000000000101011111111111110011111111111110011
1111111111110000111111111101110100000000000100100000000000011011000000000001000111111111110111011111111111100111111111111110000011111111111110010000000000000110111111111110110111111111111001100000000000000000000000000000000111111111111111100000000000001101000000000000101011111111111001000000000000000010000000000001101011111111110110111111111111011100111111111110011111111111111111001111111111100111
1111111111111110111111111110111111111111110111011111111111110100000000000001001011111111111111111111111111110111111111111111101100000000000000111111111111111011111111111110111000000000000101001111111111101011111111111110100111111111111000100000000000001001111111111111100011111111111000101111111111101111000000000000011011111111111011111111111111110000111111111110000111111111111001111111111111101000
1111111111101100111111111111111100000000000001111111111111100010000000000001000100000000000000001111111111111100111111111110101000000000000011100000000000010111111111111111100011111111111110101111111111101001111111111111000111111111110100111111111111111111111111111110001011111111111011001111111111111000111111111111110011111111111011000000000000000011111111111110110111111111111111110000000000001000
1111111111110000111111111111110111111111111101010000000000000110111111111101111011111111111100011111111111101001000000000000001000000000000101101111111111101000111111111111010111111111111000011111111111110011111111111110110011111111111111101111111111101000111111111110111100000000000000111111111111101100111111111111100011111111110110100000000000000010111111111110010111111111111100000000000000000001
0000000000000010111111111110101111111111111001011111111111101111111111111111100011111111111110110000000000010001111111111101110111111111111000011111111111101100111111111111101011111111111100001111111111100110000000000000100011111111111111000000000000000100000000000001100100000000000001011111111111111011111111111111010011111111111100001111111111111110111111111110101111111111111011101111111111111100
1111111111110011111111111110010011111111111000111111111111111101111111111110100011111111111011111111111111111100000000000001010000000000000101110000000000001001111111111111001011111111111000110000000000000010000000000000011000000000000011001111111111101101000000000001101100000000000011011111111111111101111111111111010111111111111000101111111111110101000000000001001011111111111000101111111111011101
0000000000000111000000000000000000000000000000100000000000000100000000000000111011111111111011010000000000000001000000000000011000000000000000101111111111110100111111111110111111111111111110101111111111011011111111111110001011111111111100101111111111011101000000000000010000000000000001111111111111110100111111111111000011111111111110111111111111111101111111111111110000000000000000010000000000000011
1111111111101001111111111111100011111111110111101111111111011001111111111111101111111111111111100000000000010000111111111111110100000000000110100000000000000000000000000000011100000000000001011111111111111011111111111111010111111111111001001111111111111001111111111110110111111111111101010000000000000101000000000000010011111111111111110000000000000110111111111101110111111111111111111111111111111010
1111111111101011111111111101101111111111111100110000000000000101000000000000001011111111111100111111111111110000000000000001011000000000000101100000000000000010000000000000101111111111111011101111111111101110111111111111110000000000000011101111111111111000111111111111011111111111111111010000000000000101111111111110101011111111110101001111111111110100111111111110100011111111111100001111111111101110
0000000000000010000000000001010011111111111011001111111111101110111111111111111100000000000000100000000000001100111111111110100111111111111111110000000000000000111111111111010011111111111111011111111111010111000000000000001011111111110110101111111111101101000000000001000011111111111011001111111111111100111111111101111011111111110101000000000000000101111111111111001011111111111110011111111111100101
1111111111110000111111111111111111111111111101001111111111101111111111111111001111111111111101101111111111100011111111111110100111111111111110111111111111110101000000000001000100000000000010000000000000001010000000000000000100000000000001101111111111100100111111111110101111111111111001011111111111111110000000000001010011111111111001010000000000000001111111111110011011111111111011101111111111101000
1111111111110111111111111111100111111111111011100000000000010111111111111110101111111111111011001111111111010110111111111110101011111111111011100000000000100000111111111101110111111111110110001111111111111000111111111111110100000000000100101111111111111000111111111111111111111111111101001111111111101101000000000000101111111111111101101111111111110111111111111110101111111111111000111111111111110110
1111111111101111111111111111000000000000000010011111111111111100111111111111011111111111111100011111111111101011111111111111000011111111111011111111111111011111000000000001001011111111111111011111111111101101111111111111100100000000000001111111111111111100000000000000000111111111111110001111111111100001111111111111100011111111111000111111111111111000000000000000001011111111111100101111111111110100
1111111111110111111111111111100111111111111111010000000000010110000000000000110011111111111011001111111111110100111111111111001011111111111010011111111111111110111111111110110111111111111111100000000000001110111111111111101000000000000100011111111111111111111111111111101000000000000011111111111111111010000000000000100011111111111001011111111111101011111111111111001100000000000000111111111111100010
1111111111101010111111111110001111111111111011111111111111100100111111111111000111111111111111010000000000000111000000000001100000000000000001111111111111111000111111111111001100000000000101010000000000001111000000000000001011111111111111101111111111011111111111111111100100000000000010101111111111101011111111111110110111111111111100101111111111100101111111111110111111111111111111101111111111111000