0000000000100101000000000010000100000000000001111111111111101010111111111110100100000000000110101111111111110010111111111110100111111111101100111111111110110100111111111110011011111111110101110000000000001100000000000010011100000000001001001111111111001101111111111110000000000000000011010000000000010011000000000000010011111111111100001111111111010110000000000000110111111111110001101111111110110110
1111111111011001000000000000001111111111110000010000000000110000000000000100000011111111110111101111111110110100111111111110001100000000001100110000000000101010111111111110001111111111101001111111111111011000111111111100001011111111110011110000000000010110000000000010101011111111110110011111111111001001111111111101101100000000000011000000000000110000000000000001111000000000001001011111111111110001
1111111111011010000000000010001100000000000000010000000000011100111111111111100011111111110001111111111111101011000000000000111000000000001010010000000000000010111111111010101000000000010110110000000001000000000000000001011111111111111011100000000000110011000000000000000100000000000111001111111111101111111111111110101011111111110110100000000000001111000000000011010000000000001010010000000001000001
0000000000001111111111111111011000000000000011110000000000101101111111111111100111111111101010101111111111010110000000000001011100000000001001001111111111110001000000000000000111111111111111010000000001000000111111111101000011111111100001110000000000001101000000000010111011111111110011100000000000001111000000000000010111111111111001111111111111100100000000000001111100000000010110000000000000010111
0000000000011111111111111111011000000000000100000000000000011001111111111110111000000000000110010000000000010010111111111111001011111111110110001111111111000111000000000001011000000000001001010000000000001000111111111011110011111111110011000000000000011000111111111111101111111111111101100000000000110110000000000100101100000000000001110000000000001000111111111111011000000000000000110000000001001110
1111111111111000111111111111001111111111111001001111111111001101000000000000010111111111111101111111111111111101000000000001011111111111100011111111111111101010111111111110110100000000001001100000000000101001000000000100110000000000001110111111111111100000111111111101011100000000001011100000000000001001000000000001000111111111111101011111111111000110111111111100011011111111100011011111111110011011
0000000000001101111111111101100011111111111110011111111111001001111111111111101000000000001110011111111111110100111111111101110000000000000001111111111111101000000000000000011111111111110100111111111111001011000000000001010011111111111111010000000001001100111111111101100111111111111000100000000000000011111111111100101011111111110100111111111111101101111111111101001011111111101011011111111110101111
0000000000011010000000000001000100000000000010001111111111111100111111111111001111111111111000000000000000000011000000000000100000000000001001000000000000011111000000000001101011111111111011111111111111111110111111111111100111111111111001011111111111110011111111111101111011111111111011000000000000000000111111111101001111111111111101100000000000011010111111111111110000000000001100010000000000001100
1111111111011111111111111110100111111111111011011111111111111001111111111111011111111111110011101111111111011101111111111111000000000000001010100000000000101001111111111110010000000000000010110000000000110111000000000011110011111111111110010000000000100000000000000000001111111111111101100000000000001001111111111001100011111111111011010000000000010101111111111110010000000000000000011111111111011101
0000000000001111111111111110001111111111111000001111111111111011000000000000110100000000000101111111111111110010000000000001101111111111111010100000000000000011000000000000011000000000000011011111111110111111111111111111010111111111110010001111111111111110000000000001001111111111111101101111111111110100111111111100010000000000000001110000000000010110000000000000101111111111111100011111111110101011
0000000001000110000000000001100000000000000111100000000000001001000000000010000011111111111100111111111111110010000000000000100111111111111100011111111110111010111111111110001011111111111010111111111111111101111111111110101011111111110011111111111111011011000000000001101011111111111110101111111111110100111111111111110011111111110001111111111111110100111111111101110011111111110111101111111111101111
1111111111110100111111111111111000000000001100111111111111111001000000000000000111111111101100110000000000010001000000000000111100000000010010001111111111010000111111111101010000000000000101010000000000100111000000000011011000000000001101110000000000001011000000000011011100000000000101011111111111100111111111111101101011111111111001010000000000010000000000000000110111111111110100010000000000011111
1111111111110100111111111110111111111111111111011111111111001100111111111110010000000000000110000000000000011101111111111101111111111111101011101111111111001010000000000100101000000000000111001111111111001010111111111100000011111111111011110000000000100110111111111110101111111111111010011111111111110011000000000011001111111111111010101111111111010010111111111100110011111111101110110000000000011001
0000000001000110000000000001001011111111111100101111111110111110111111111110001100000000000010110000000000010110000000000001010111111111111000101111111111000111111111111101101100000000000000001111111111011101000000000000110100000000000000101111111111111010111111111110110011111111111101011111111111000100111111111010100100000000000110000000000000001000000000000001100111111111101111111111111110000001
1111111111111111111111111110111000000000000001111111111111111010000000000000000100000000000011010000000000010001111111111101101011111111111110010000000000110011000000000000001111111111111100010000000000011110111111111110000011111111110010100000000000011011000000000000101100000000000001111111111111101001111111111100101011111111111101101111111111111111111111111110110111111111111100101111111110110010
1111111111111011111111111111010011111111111001101111111111111011111111111110101011111111101010111111111110110101000000000010000111111111110100100000000000010110000000000010111011111111111110011111111111101000000000000011100000000000011010100000000000011110111111111110101111111111110011001111111111111111000000000001110000000000000110111111111110010000111111111011001000000000010000000000000000001010