0000000000000110111111111111001111111111110111101111111111011000111111111111011100000000010010000000000000011111000000000011110111111111111001000000000000110000111111111110110011111111111100000000000000010011111111111011000111111111111010011111111111011100111111111001001111111111111100101111111111101000111111111111001111111111110010101111111111110100000000000001001100000000000100111111111111101101
1111111110011101000000000100110000000000010001100000000000111010000000000010111011111111110111110000000000101011000000000101011100000000001100011111111111110100000000000100001000000000001001100000000000011110111111111001111111111111010110111111111111011010111111111110001011111111110100101111111111011011111111111001100011111111111000111111111111100000111111111110101011111111110101111111111111001010
0000000000001001000000000000111000000000000010100000000000010001000000000001100011111111101101100000000000001100000000000010001111111111111110101111111110101000111111111111101000000000000111001111111111101010111111111101101111111111110000100000000001011011000000000011110111111111111011101111111111101001111111111111110100000000001000110000000000011010111111111111110011111111110101100000000000001001
0000000000000001000000000000110111111111111001000000000000010100000000000000011111111111110101101111111111011001111111111100010111111111110010001111111110100010111111111111101000000000001000011111111111010001000000000001000000000000000001100000000000001001111111111111011100000000001110010000000000100100111111111101111000000000000010010000000001000010111111111111111100000000000001000000000000001101
0000000000101000000000000101100000000000001010111111111110011010111111111110001100000000001000010000000000011010000000000001101011111111111111010000000000001000111111111110111011111111110100110000000001101010000000000000100100000000010000000000000000001110111111111111101000000000001101000000000001001000000000000000110100000000000101111111111111100110000000000001010000000000001110011111111111110110
1111111111001101000000000001101011111111101111001111111111011100111111111000101000000000000001100000000000011000111111111111010100000000001001111111111111111100000000000001100011111111111110010000000000101111000000000000010000000000001010101111111111110001111111111110011111111111111110011111111111100010000000000011110011111111110010100000000000000110111111111111111100000000010010001111111111111100
1111111111110100000000000010111000000000001011110000000000010011111111111111001011111111111010100000000000000011000000000001101000000000001001011111111111111011000000000010011100000000000100101111111111111000000000000010101100000000001000111111111111101010000000000000011111111111111010000000000000000110111111111110110011111111111101011111111111101110000000000000100111111111111000001111111111111010
1111111110001101111111111110010000000000000001101111111110101101111111111101001000000000000111001111111111100110111111111010001011111111110100111111111111001011000000000100010000000000000010001111111111001111111111111010010111111111111110110000000001000010111111111111011111111111111010101111111111110000111111111111100011111111111011000000000000010111111111111111111000000000001001111111111111110010
0000000000011010111111111111010000000000000000010000000000011011000000000000100111111111111101011111111111110111111111111110010000000000001011001111111111011110111111111101010011111111111111011111111111011110111111111111111011111111111111000000000001001101000000000001110111111111111011111111111111111110111111111111001011111111111011010000000000001101111111111110110000000000000001111111111111111111
1111111111011010000000000001010100000000000010011111111111101100000000000010110111111111111111000000000000011001000000000011111100000000001110000000000000010001000000000011110011111111111100101111111111010001111111111111110000000000001011001111111110111101111111111101010011111111101001111111111111010011111111111100000000000000000000001111111111111110111111111101001011111111111010111111111111001100
1111111111100111000000000010110011111111101011001111111110100001111111111101001011111111111010010000000000011101111111111101011011111111101100011111111110101110111111111101010111111111111110011111111111101010000000000001101000000000000000011111111111000101111111111110010000000000000110110000000000010011111111111110101000000000000001110000000000001110000000000000111100000000000010011111111111100001
0000000001000010000000000101001000000000001100000000000000001001000000000100001111111111110111101111111111111100111111111011101111111111101110011111111111001000111111111101010011111111110010101111111110000110111111111000000111111111111100010000000000010111000000000010110100000000000010111111111111101110111111111100110011111111111111110000000000101010000000000000111000000000000100010000000000001100
1111111111001010111111111011010011111111111000101111111110111101000000000001001011111111110011001111111111110110000000000001111011111111111101011111111111001111111111111111001100000000000010100000000000010011000000000100000100000000001111001111111111110100000000000000000011111111110110111111111111100101000000000010101011111111101110011111111110100010000000000010000100000000000001000000000000001101
1111111111101001000000000001000011111111110111011111111110101101111111111010111000000000001000000000000000100110111111111111111000000000000101010000000000010111111111111101110111111111101101111111111111110000111111111100101100000000000011111111111111111011111111111100111011111111101010100000000000000001111111111111001011111111111101100000000000000011111111111110101000000000000100011111111111110010
1111111111010000111111111111100100000000001000010000000000001110000000000011001111111111110110011111111111011110000000000000001000000000000111000000000000111101000000000001101100000000000001001111111111011111111111111110110111111111111101001111111111111111111111111111011000000000000111101111111111101000000000000000000100000000000001100000000000100010000000000000000011111111111100001111111111101000
1111111111001110111111111100100111111111111010111111111111010001111111111110110011111111101011011111111110101101000000000010100111111111111111101111111111111010000000000011000100000000001111100000000001000001000000000100010000000000000110100000000000111000000000000001001100000000010001110000000000110001111111111110011111111111110110111111111111110011000000000000101011111111111101000000000000000110