1111111111111011111111111111100100000000001110101111111111111100000000000001010000000000000100100000000000101110111111111110001000000000000110011111111111111100000000000000010100000000000101011111111110101110000000000000011111111111110100101111111111000101111111111101100111111111110000001111111111110110111111111111100111111111110110101111111111101001111111111100101011111111100110001111111111111000
0000000000000000111111111101101011111111111100110000000000100001000000000000111000000000001001100000000000000110111111111111010111111111111000100000000000011010000000000001110100000000000001101111111111100101000000000001000011111111111110001111111110001101111111111101011011111111111100000000000000000111000000000001101000000000000001110000000000101010000000000100010100000000001100000000000000011101
0000000000001100000000000000010011111111111101101111111110101110111111111100010100000000001100100000000000010100111111111101111000000000000010111111111111100111111111111111001100000000001110010000000000010001111111111101000000000000000101101111111111110010000000000000011000000000001011110000000000010000111111111111001100000000000000101111111111111001000000000000111111111111110100101111111111100011
0000000000001011111111111101011011111111101111111111111110111010111111111001001100000000000100101111111111110010111111111010111100000000000000011111111111001110111111111011000111111111110110000000000000011001111111111110110111111111110010011111111111000110111111111110111111111111111100011111111111111011000000000001111100000000000111011111111111101011000000000001000011111111110000011111111111001111
0000000000011100111111111011101100000000001110001111111111100100111111111101100011111111110001001111111111110110000000000010010011111111110101110000000000011010000000000000001000000000001001010000000000011101111111111101010100000000000111011111111111111110000000000010010111111111111000110000000000010000111111111110100011111111111100000000000000011101111111111100001011111111110000011111111111001001
1111111111100100111111111110100100000000000111101111111111111001111111111010111000000000000100101111111111001010000000000100000100000000000000011111111111001110111111111100110011111111101011110000000000001101000000000000000111111111111101101111111111001010111111111111101011111111111010011111111111101101000000000000110011111111111110100000000001010010111111111101101111111111101100110000000000100001
0000000000010000000000000001001111111111111010010000000000000000000000000000011000000000001100110000000000101101000000000000100100000000000101000000000000110010111111111110000011111111111111010000000000011001000000000010011011111111111100001111111110110110111111111010000011111111111010100000000000100100000000000010001000000000000101111111111111000001111111111100000111111111110101100000000000001111
0000000000011111000000000000010111111111110111111111111111101010000000000000010000000000000011110000000000110000000000000000010011111111111110101111111111100011000000000001101011111111111101010000000000000101000000000010100100000000000110011111111111110111111111111101001011111111110111101111111111111110000000000001111111111111111110110000000000001110000000000110111100000000000011010000000000011100
0000000000011100000000000001010011111111111110011111111111100010111111111110100000000000000110000000000000101000111111111111010000000000000011011111111111110111111111111101101011111111110001001111111111001100000000000000001111111111111110011111111111111010111111111111111000000000000000000000000000011100000000000011001011111111111111001111111111110100000000000001100100000000001100010000000000000000
1111111111101011000000000000100011111111110110011111111111110010111111111111100100000000000110011111111111110111000000000010111100000000001110011111111111110011111111111010000011111111100000111111111110100011111111111101110000000000001100001111111111001101111111111100110000000000000101100000000000011111000000000010110000000000000011101111111111111110111111111111100111111111111111110000000001100011
0000000000010000000000000001110011111111110000001111111111111001111111111011000000000000000001110000000000010001111111111111010000000000000000001111111111001100000000000000010111111111110011010000000000010101000000000000101011111111111000111111111110010100000000000000000100000000000111000000000000000101111111111110101000000000001100001111111111100100000000000000101011111111110000101111111110101011
0000000000001010111111111111100100000000000110101111111111001001111111111011011011111111111111001111111111110101111111111111011111111111111100000000000000001100111111111110100111111111110111010000000000000111111111111011110000000000001000010000000000100101000000000011111000000000000111000000000000011111000000000000010011111111111100100000000000010000111111111111011111111111110010101111111111001111
0000000000010010000000000000111111111111111100111111111110111111000000000000110111111111110111110000000000010111111111111111101011111111101110100000000000011001000000000010001100000000000100110000000000000100111111111111000011111111111000011111111111001001111111111011101111111111101100011111111111011001000000000000100111111111110001111111111110000111111111111011110000000000000101000000000000110011
1111111111101100000000000000110100000000001111010000000000010000111111111110010100000000000001111111111111101011000000000010100111111111111111010000000000001010111111111100110111111111100111101111111111011100111111111101111111111111111001101111111111010110000000000001000011111111110100000000000000001000000000000011100011111111111101010000000001001001000000000000011111111111101101100000000000000110
1111111111111100000000000000010011111111111010110000000000001111000000000010100100000000001010000000000000011100111111111110110111111111110110110000000000000001111111111011011011111111101011101111111111101001111111111101011111111111111110011111111110111001111111111001101111111111111100010000000000010011000000000011010000000000000010001111111111110000000000000000011011111111111110010000000000010100
0000000000000100111111111111110011111111111111000000000000000011000000000000001100000000000110100000000000011111000000000010110000000000000011000000000000010110111111111110111011111111111111000000000000001000000000000001010000000000000101111111111111011111111111111111110111111111111111110000000000000001111111111110101011111111110011011111111111011010111111111100101111111111111111010000000000000110