1111111111101100111111111110000011111111110010111111111101110000000000000000001000000000001011110000000001011110000000000011010011111111110111100000000000111100000000000001101100000000010010001111111111010010000000000010011100000000000001111111111111111001000000000000001011111111110010001111111111000101000000000001010011111111110011000000000000011010111111111111001111111111111011000000000000110100
1111111111011001000000000101001100000000010110000000000000101110111111111110110111111111110001000000000000110011000000000001001011111111111001010000000000001101000000000100110100000000001111100000000000011100111111111011010011111111100100110000000000000111111111111110101011111111110111101111111110101101111111111110011000000000010001101111111111110011111111111101100111111111110100111111111111001110
0000000000010011111111111111001111111111111101001111111111110011000000000010100100000000000000110000000001000001111111111111001011111111111110111111111111010000000000000011100000000000000011101111111111100111111111111100100011111111110010000000000000110110000000000001110000000000000011100000000000000001111111111110110000000000001100100000000001001001111111111111011111111111111111101111111111100001
0000000000001010111111111110001011111111110100000000000000000000000000000000010111111111111000011111111111010000111111111100001111111111100101011111111101101011000000000011000100000000000100101111111111001100111111111011001111111111101010010000000000010111000000000011101011111111110100111111111111011101111111111101111000000000010110110000000000101110111111111111110000000000000100010000000000000101
0000000000001100000000000011001011111111110001111111111111111011111111111011000100000000000100010000000000000101111111111101101000000000000000001111111111011101111111111111010111111111101000010000000000111000000000000011001100000000000110100000000000000100111111111110011000000000010000110000000000011000000000000001000000000000000101011111111111001110000000000010010000000000001111111111111111111011
0000000000011110000000000010111111111111110000011111111111110001111111111101001100000000010000010000000000011111111111111100101100000000001111010000000000100001000000000000000000000000001010111111111111001101000000000001001100000000000011100000000000000100111111111110010111111111100111111111111111100001000000000010001111111111111000110000000000001101111111111011001100000000000110000000000000001000
1111111111110000000000000001110000000000000101001111111111111101000000000000000111111111110001100000000000101001000000000000100111111111111010101111111111101011111111111110000100000000000111100000000000100010111111111110101111111111111101111111111111011110000000000000001111111111111101111111111110101101000000000010111111111111111111100000000000101110000000000010010111111111101110011111111111000111
1111111111010111000000000001010000000000000100011111111111110000000000000011111100000000000011010000000000000111111111111111011111111111101111111111111111111000000000000110010100000000001110001111111111010000000000000000001011111111110000000000000001010100000000000000000011111111111111011111111111011111000000000010000111111111110111100000000000000011111111111011100011111111111100000000000000010011
0000000000110000111111111111101011111111110011000000000000001101000000000001011100000000010110000000000000100111111111111100110100000000001110011111111111100001000000000001011011111111110100010000000000000100111111111110000011111111101100110000000001000110000000000010011011111111110011101111111111001110111111111111111000000000000011110000000000000010111111111101010011111111111010010000000000000101
1111111110111111000000000001100000000000001110010000000000101110111111111111100000000000001000000000000001000001000000000001111100000000000101011111111111111100000000000010001111111111111100111111111111000000111111111110111000000000000110010000000000100001000000000000000000000000000001101111111111110010000000000000101011111111111011010000000000001001111111111110011111111111111001110000000000101111
1111111111110011111111111111010011111111101110001111111101011101111111111110111000000000000011010000000001111100111111111101100011111111011110101111111111011001000000000010000100000000001100101111111110000101000000000000101100000000001011100000000000110011111111111111111011111111110010010000000000101110000000000000001000000000001010101111111111111100111111111111000100000000001000100000000000000010
0000000001001000000000000011110111111111111100010000000000010000000000000010011100000000000001010000000000001011111111111110001111111111110011110000000000011100111111111101111111111111101100011111111110000100111111111001110011111111110111000000000000001110000000000001110111111111111100011111111110111011000000000000110111111111110101110000000000011110111111111111100100000000000000111111111111010110
0000000000001111111111111100011011111111101111111111111110110011000000000001101011111111111001101111111111100101111111111101100000000000000011010000000000000001111111111111111100000000000111010000000000100111000000000000101100000000001011011111111110111110111111111001011011111111111101001111111111111011000000000000010111111111101101111111111110110101000000000001001000000000000011000000000000010110
1111111111110110000000000100000000000000000110110000000000101101000000000100101100000000000101101111111111110101000000000001011000000000000101110000000000100010111111111110110111111111110100001111111111100011000000000000000011111111111001001111111111111101111111111011001111111111100110000000000000101001000000000000100011111111110110110000000000000011111111111100010100000000001011111111111111110001
1111111111010111111111111110101100000000000011010000000000001100000000000000001111111111110010110000000000010000000000000001101111111111111011100000000000110100000000000001010000000000000010001111111111010001111111111101010111111111111111100000000000001010111111111110110011111111110110111111111111000010000000000100101011111111111111100000000000000010111111111110111111111111110101111111111111010010
0000000000001001000000000010010100000000000111101111111111110111111111111111110000000000000110000000000000110000000000000011100100000000001110100000000000100111111111111101010000000000000001000000000000111100000000000001001000000000000000101111111111110011111111111110000000000000000101110000000001000001111111111111011111111111111010100000000000001000111111111111011011111111111010110000000000010000