0000000000001000000000000000011000000000000010001111111111111100111111111110110111111111111111011111111111111010111111111111001000000000000011011111111111101111111111111111111011111111111110011111111111101101111111111111010111111111111100110000000000000110000000000000110011111111111111010000000000000101111111111111001011111111111011110000000000000100000000000000011111111111111111101111111111111110
1111111111111010111111111111110100000000000000011111111111111001111111111110100000000000000001001111111111101001111111111110101100000000000000101111111111101110111111111111001011111111111111101111111111111001111111111111001011111111111110010000000000000010000000000001010011111111111101101111111111111010111111111111101111111111111011111111111111101111000000000000011011111111111011100000000000000001
1111111111110101000000000000010000000000000000001111111111111111111111111110111111111111111100011111111111110101111111111111111111111111111101111111111111101001111111111110101100000000000010011111111111111111000000000000001011111111111110011111111111111000000000000000000111111111111011111111111111101111111111111111000111111111111100111111111111111110000000000000010111111111111011100000000000000011
0000000000000110000000000001001011111111111101110000000000001101000000000000101000000000000011101111111111110001111111111111011000000000000000011111111111110010000000000001101100000000000000010000000000000110111111111110110111111111111101110000000000000111111111111111100111111111111110001111111111101100000000000000110011111111111101111111111111111101111111111111010000000000000001100000000000001010
1111111111110111111111111111111111111111111110100000000000000000111111111111001111111111111110101111111111110101000000000000010100000000000010100000000000000101000000000000001111111111111110101111111111101010000000000000101111111111111011111111111111110011111111111110100100000000000011000000000000000010111111111111101111111111111101001111111111111111000000000000010111111111111100111111111111110010
1111111111110101111111111110110011111111111101011111111111110101000000000000011100000000000001010000000000000010111111111111100011111111111111110000000000000011111111111111000111111111111101001111111111110101111111111111101011111111111100001111111111110100111111111111010011111111111101000000000000000010111111111110011011111111111111101111111111111110000000000000010011111111111111101111111111101101
1111111111111001111111111111011111111111111010001111111111101110111111111111101011111111111111100000000000001000111111111111101011111111111111101111111111101101111111111111110011111111111111001111111111111101111111111111110100000000000001101111111111110110111111111111101111111111111101100000000000000000000000000000000011111111111111010000000000000110111111111111101000000000000010001111111111111110
0000000000000001111111111111000000000000000001010000000000000101000000000000011111111111111110111111111111101110111111111111100111111111111111110000000000000010111111111111000111111111111101101111111111101011111111111110111111111111111100101111111111111101000000000000001100000000000000011111111111110100111111111111110011111111111111001111111111111001000000000000001100000000000000000000000000000000
1111111111110000111111111111100011111111111110001111111111111011111111111111011000000000000000000000000000000001000000000000000000000000000000011111111111100110000000000000011011111111111110000000000000000000000000000000000011111111111110100000000000000010111111111111100000000000000001011111111111111001111111111110111100000000000000100000000000000101000000000000100000000000000000111111111111101111
0000000000000001111111111110110011111111111110110000000000000010111111111111101111111111111101101111111111111000111111111111010011111111111110000000000000000011111111111111100111111111111101101111111111111101111111111111101100000000000000110000000000001000111111111111100000000000000000110000000000000101111111111111110111111111111100011111111111111111111111111110111100000000000000100000000000000000
1111111111111101000000000000100100000000000000001111111111110001111111111111100000000000000101001111111111111011111111111111011111111111111111110000000000000101000000000000110011111111111110001111111111110010111111111111010111111111111111100000000000000110000000000000111111111111111111001111111111110000111111111111000111111111111111001111111111110000111111111110111000000000000000011111111111111110
0000000000001101111111111110111011111111111110111111111111101110111111111110110100000000000001111111111111111000000000000000001111111111111101001111111111111100111111111110111000000000000000010000000000000000111111111111101100000000000000101111111111110001111111111110111000000000000010010000000000000000000000000000010100000000000001011111111111111101111111111111101111111111111101110000000000000111
1111111111111101111111111111000111111111111110110000000000000010111111111111111011111111111101011111111111111111000000000000001100000000000000110000000000000000111111111111011111111111111011001111111111110101000000000000011111111111111111010000000000000011111111111111010111111111111110111111111111111010111111111111110011111111111100010000000000000110111111111111100011111111111011110000000000000000
1111111111110001111111111111110011111111111110101111111111110101111111111111101011111111111100010000000000001000111111111111010111111111111101100000000000000100111111111111110011111111111101010000000000001011111111111111011111111111111110100000000000000011111111111111010011111111111111100000000000000011000000000000011011111111111100010000000000001000000000000000011111111111111110011111111111111111
1111111111110010111111111111000000000000000000010000000000000010000000000000010100000000000001011111111111100100111111111111011111111111111101100000000000001000111111111111100011111111111111100000000000000100000000000000001100000000000000101111111111111010111111111110100100000000000001101111111111101110111111111111011011111111111011111111111111110100111111111111111000000000000011100000000000001011
1111111111110010111111111111011000000000000000001111111111101010111111111111011111111111111111000000000000000001111111111111010011111111111110101111111111101110000000000000001111111111111011011111111111110100111111111111001111111111111100111111111111110001111111111111100000000000000000001111111111110101111111111111000011111111111101100000000000000010111111111111110011111111111011111111111111111000