1111111111110011111111111010110000000000000100110000000000000110000000000001101111111111101000011111111110001110111111111100011000000000001010101111111111110001000000000001111011111111111011110000000000000100000000000101100100000000000000101111111111001010000000000001100100000000010010100000000000111000111111111110001111111111101011001111111111110011111111111101111100000000010101100000000000000100
0000000000111100111111111111110100000000000011000000000000000001111111111100100100000000010111100000000000100010111111111110100011111111111011110000000000000110000000000001100000000000000101100000000000111101111111111111100011111111110110010000000000010010111111111111100100000000000110100000000000100010000000000000111111111111111101101111111111100000000000000000011100000000000010011111111111101110
0000000000100111000000000000111111111111111101000000000000011010111111111101011100000000000100110000000000011100111111111010000011111111110111111111111111101101111111111100111111111111111001101111111111011101000000000000111111111111110100101111111111110001000000000000001011111111111110110000000000011001000000000000100000000000000011000000000000000011000000000011011100000000001000000000000000011100
1111111111001100000000000000100000000000001010110000000000011000000000000000011000000000000100110000000000011011000000000001100000000000001000011111111111100101000000000100100011111111111011011111111111100110111111111110001111111111110110101111111111000000000000000000001011111111110010111111111111111000111111111110111000000000000000111111111111101000000000000001010111111111110110000000000000100000
1111111111001111111111111010100011111111110101010000000000101111000000000011110011111111110001101111111111110110000000000000100100000000001001100000000000010100111111111010101011111111111110000000000000000000111111111111010000000000000010001111111111101111111111111101100100000000001110100000000000010001000000000010001100000000000110000000000000001011000000000000100000000000000110001111111111101110
0000000000110001111111111011111100000000000100110000000000110010111111111101111111111111101000111111111111001010111111111111100011111111101111001111111111011000111111111110101111111111110101100000000000011001000000000001001000000000000001000000000000011101111111111101100100000000000110000000000000001101111111111111101100000000001000111111111111001110000000000101010100000000001110001111111111110001
0000000000010100000000000000100100000000000111111111111111101011111111111110101100000000001110100000000000110000000000000010001111111111111100100000000000110010111111111110111011111111110101101111111111011110111111111110111111111111111011010000000001000100111111111011101100000000000110011111111111110110111111111110101100000000010010110000000000011101111111111110010000000000001001000000000000111000
0000000000011010111111111101110011111111101101111111111110011001111111111100001000000000000000110000000000000110111111111110110000000000000011010000000000000011111111111110000011111111110101111111111111110001111111111110010000000000000010011111111111111010111111111110111100000000000000110000000000100001111111111111100000000000011001101111111111100100111111111111011011111111111001001111111111110100
0000000001001111000000000000110000000000010000110000000000000010111111111110101111111111110100010000000000001001000000000010010000000000000000001111111111101101111111111011010011111111111100000000000000011011111111111111011011111111111011011111111110011011111111111100000100000000000111011111111111111100111111111101001100000000000001001111111111110001000000000010100011111111111110000000000000011010
0000000001100000000000000001011011111111111000011111111111000111111111110111101000000000000110110000000000000110111111111100010011111111110110111111111111011110111111111111001100000000000011110000000000100011000000000100000100000000001000000000000000011101111111111111111111111111111011000000000000010010111111111111011011111111111000011111111111101001111111111111011111111111111011101111111110101111
1111111110110010111111111011001000000000010001000000000000100111000000000000000011111111110010101111111110000111000000000000100100000000010111000000000000001111111111111101111011111111101000110000000000010011000000000000010011111111101011111111111110111101111111111110001111111111111110110000000000010111111111111101011011111111101100100000000000001101111111111111010111111111111011010000000000001111
1111111111110111111111111011010011111111111110010000000000100001111111111110100111111111111110001111111110110110000000000000011000000000000101101111111110110111111111111110011011111111111101000000000000111001000000000100010011111111111010011111111110110101111111111011100111111111110111011111111111110101111111111110100111111111110110000000000000000100111111111110011100000000000100010000000000110001
1111111111100110111111111111111111111111111100010000000000001100111111111101110100000000001000000000000000011111000000000000110111111111110110111111111110010001111111111011110011111111101101111111111111001100111111111101010111111111110111111111111110101111111111111111010000000000001000000000000000101111000000000001110100000000000001000000000000000001000000000011001100000000000001101111111111001110
0000000000011011111111111111110111111111110100100000000000010000111111111100100011111111101101101111111111101011111111111111011011111111111010011111111111101011111111111110001000000000000001110000000000101111000000000001001000000000000000011111111111100101000000000000011000000000001000011111111111111100111111111110110011111111111101101111111111001000111111111100001111111111110111101111111111011000
0000000001001110000000000010010011111111111111011111111111000111111111110110000000000000010110100000000001000110111111111111110011111111110011111111111111010111111111111111001111111111111111010000000000000100111111111111100111111111111100100000000000001000000000000001101000000000000111000000000000100011111111111110001011111111111000101111111111110001000000000000010000000000000010110000000000000010
0000000000100001111111111110011111111111111001011111111111111000111111111111111000000000000100101111111111001001111111110111011111111111101101001111111110111110111111111111011011111111111000011111111111001111111111111101110111111111111100100000000000110110000000000100010111111111110001101111111110100111111111111111111100000000010111100000000001010010000000000011100011111111111000010000000000011010