1111111111011001111111111100110111111111111101100000000000000011000000000010011011111111011111111111111111001001111111111001110000000000000111011111111111000110111111111011010011111111101111011111111111010110000000000000111011111111110000010000000000011000000000000000011111111111111110111111111111011101111111111110110111111111101110110000000000011111111111111111000100000000000010110000000000000000
0000000000110101000000000001010100000000000011101111111111110010111111111101111000000000001001010000000000110010000000000011101000000000000001000000000000011000000000000011100000000000010000000000000000100111111111111111000011111111110010110000000000010011000000000001000111111111111101111111111111010100000000000001101100000000001110011111111111110011000000000001100000000000001011000000000000100101
1111111111001000111111111110111100000000000101000000000001001011000000000001101111111111111101011111111111110101111111111111010011111111111010001111111111001100000000000101101111111111111001111111111110110011111111111100000011111111101001100000000000001111000000000010000111111111111110010000000000100111000000000001100100000000000111010000000000001111000000000011011111111111111100000000000000101000
1111111110101001000000000001111100000000010110000000000000010100000000000010110011111111101011100000000000000111000000000001101000000000000000010000000000000111000000000000011111111111110110100000000000000011000000000000000000000000001001101111111110110100000000000000010100000000000011101111111111011101000000000000010100000000000111100000000000000000111111111111010111111111110100111111111111111000
1111111111100100111111111011111100000000000011011111111111111111000000000001111111111111110101101111111111100001000000000001000011111111110001010000000001001010111111111100001011111111111101111111111111000010000000000010110000000000010000111111111111110100111111111111010111111111111100000000000000101000000000000000101111111111111111011111111111111000111111111101101011111111110001011111111110101101
0000000000001100111111111100011011111111110001111111111111111101000000000010110111111111101110011111111110111111111111111011110111111111100010010000000000010101111111111011110011111111100101101111111111111101111111111101100111111111100111110000000000011010111111111101110011111111111100101111111111110010111111111101110100000000000010101111111111011101111111111111110000000000001111000000000000001100
0000000000100110000000000101000000000000001011010000000000011011111111111110000100000000001100010000000000100010000000000000000000000000000101111111111111011101000000000000011111111111110111011111111111100100111111111000001011111111110100011111111111101001111111111110001100000000001111000000000000011011000000000101001100000000010011000000000000010111000000000001100100000000001100000000000001100010
1111111111110010111111111111111100000000000001110000000000001100111111111110100000000000000001010000000000001011111111111111011011111111110110101111111111111110000000000001111000000000000100111111111111111010000000000010110000000000001100010000000000000000000000000001000000000000001000100000000000111000000000000010011100000000100010110000000000010110000000000011001100000000000010101111111111100100
1111111111111111111111111100010111111111111111110000000000011001000000000001010011111111111010010000000000000111000000000001011111111111110100011111111110000111111111111111000100000000001100110000000000000000111111111100001111111111110010100000000000101010111111111111101000000000001011100000000000010100000000000011011100000000010010100000000000000101000000000001100000000000010011100000000001001011
0000000000110100000000001000001100000000010010110000000000010000111111110100011000000000010110010000000000111001111111111011110011111111110011101111111111110000000000000000100111111111110011101111111111011010111111111111011111111111111011100000000000111000000000000000000100000000000101010000000000101111000000000110100000000000001001000000000000000111111111111111000100000000001000110000000001011010
1111111111001011000000000000001100000000001110110000000000111011000000000100011011111111101001011111111110111110000000000001111000000000001100010000000000110000111111111000010111111111101111011111111111111100000000000000100111111111111011111111111111000111111111111111101100000000000001010000000000000010111111111011000000000000000010110000000000100110111111111111010011111111110011101111111111001100
1111111111001100111111111100001111111111111010110000000000000110111111111111110100000000000101101111111111011100111111111111000000000000000010110000000000001110111111111111101111111111111010100000000000010101000000000000010000000000000011011111111111111100111111111101101000000000000010100000000001100001000000000100111011111111111100010000000000000000000000000011001100000000000100011111111111100101
1111111111000111000000000000100100000000001001100000000000101010000000000010000011111111110111111111111111110110111111111111001100000000010101110000000001100100111111111100111111111111110000101111111111000001111111111011110000000000000101101111111101101011111111111101110000000000001001001111111111110001111111111111001000000000000000101111111111111001000000000001011000000000001100100000000001000111
0000000000011111111111111101111011111111110001001111111111110000000000000001010011111111110001011111111110110111111111111011010111111111100001011111111111011101111111111111100011111111011101101111111111111011000000000000000111111111110010001111111111100000111111111111011011111111110111010000000001001100000000000010100100000000000010001111111111001010111111111110110100000000001010010000000001010010
0000000000001100000000000100010000000000001111100000000000011011111111111011100100000000010001010000000000110011000000000010000000000000000110111111111111101101111111111111110100000000000100111111111111101100111111111010010111111111100111101111111111100001000000000001000000000000001101010000000000100011000000000110010100000000000011011111111111101011000000000011000000000000000110010000000001000100
1111111111110110000000000000100111111111110110011111111111100010111111111111111100000000010010100000000000101011111111111111100011111111101011011111111110001111000000000101011000000000001011010000000000100111000000000000001111111111111000110000000000101011000000000010101000000000000001101111111110111010000000000001001100000000001101100000000001010000000000000000001000000000000010100000000000010000