1111111111001110000000000001011011111111111111101111111111110000111111111110011100000000000110101111111111110100000000000010110100000000000000100000000000010110111111111100001011111111110110110000000001000100111111111111001000000000001100101111111111011001111111111000111011111111111111001111111111111110000000000011001011111111110000101111111111110000111111111110000011111111110101100000000000001110
1111111110001011000000000010000100000000000100010000000000110001000000000001000111111111101101001111111111110011000000000011101000000000010100010000000000100100000000000010001100000000000010101111111111101111000000000000101100000000001000100000000000100100000000000001110011111111110111111111111110110111111111111000110100000000000110000000000000011101111111111111100111111111111110101111111111001111
1111111111100101111111111110010100000000000000110000000000001010000000000001000111111111110000010000000000011101000000000100101111111111111001101111111111101110111111111010100000000000000001110000000000001011000000000000011100000000000011100000000000110101000000000011011111111111111100001111111111101010111111111101110100000000001111110000000000100000000000000000111100000000001001000000000001000101
1111111111011000000000000000010100000000000100111111111111101000000000000001101011111111110001101111111111111011111111111101010011111111110001111111111111101110111111111111110100000000000110001111111111010100111111111110100111111111111000001111111111011110000000000000110111111111111111001111111111100001111111111101111000000000001011011111111111110000111111111111100100000000001010100000000000011010
0000000000100011000000000001110111111111111101101111111111010001000000000000101100000000000000111111111111010100111111111100101000000000000000100000000000010010111111111110011111111111110111001111111111001100000000000010100011111111111010101111111111101101000000000000010011111111110111010000000000001001111111111100011100000000000010011111111111011000000000000000001111111111111110110000000000010011
0000000000010110000000000010100111111111101110111111111111000100111111111011100011111111111000100000000000101110000000000000001111111111110100101111111111101100000000000011110000000000001001110000000000111110111111111111111000000000001110011111111111100000111111111111001000000000001110010000000000101110000000000100110011111111111010001111111111011000111111111100011100000000000111100000000000101001
0000000000011110000000000001001100000000000001001111111111111101000000000000101000000000000010010000000000001111111111111100100111111111111101110000000000010011111111111111010111111111111001001111111111100110000000000001000011111111111010010000000000000010000000000100000100000000001110111111111111110010111111111111110100000000010100100000000000000101111111111111000111111111111101100000000000100101
0000000000000000000000000001100100000000000110010000000000010001111111111110111011111111110110111111111111001110111111111101111000000000001001101111111111101101000000000001101100000000000001011111111111111100000000000001000011111111110010100000000000010100111111111100111011111111111111011111111111011010111111111010010100000000010101110000000001001010111111111100101011111111111011101111111111100110
1111111111011001111111111110111011111111111011010000000000100111000000000010010011111111111001001111111111110101000000000010010011111111111101110000000000001110000000000000010000000000001011000000000000010011000000000000111111111111111100010000000000100111000000000010110100000000001000100000000000000011000000000001001011111111111010110000000000000110000000000001101100000000001001110000000000010111
1111111111011000000000000000110111111111111010110000000000011010000000000011000100000000000010100000000000011101111111111110001000000000000000110000000000101010000000001000011000000000000111111111111110111111111111111110000100000000000010100000000001000001000000000101001000000000001000101111111111101001111111111100101000000000010100000000000000000101111111111111100100000000000010100000000000000000
1111111111101000111111111101110100000000000010110000000001110011000000000010110111111111110010011111111111101110111111111111010011111111101100111111111111010000111111111001111111111111111011010000000000100011111111111111100000000000000110011111111110100110111111111111101000000000000000001111111111110101000000000010000011111111111110111111111111111111111111111110001000000000001000100000000000100110
1111111111101010000000000001101100000000000001101111111111111110000000000011000000000000000001100000000000010010111111111110010000000000000011001111111110111011111111111111111011111111111000001111111110101000000000000001001000000000001010011111111111110010000000000011010011111111110110111111111111001101111111111011101000000000001010011111111111110001111111111111001011111111111101011111111111110110
0000000000011001111111111111000000000000000000111111111111001100111111111111011000000000000111001111111111100100111111111011000111111111111101001111111111111011000000000000010011111111111010011111111111011000111111111110100011111111111010000000000000000101000000000000001011111111111011111111111111111111000000000000010011111111101110011111111110111010111111111111100000000000010000100000000001111111
0000000000001000000000000001001011111111110011111111111111100011111111111100101100000000001111110000000000011111000000000001000111111111111011110000000000010110000000000001110000000000001010110000000001000011000000000000001100000000000100011111111111101101111111111100110011111111111011111111111111101001000000000000101000000000000111111111111111110100111111111011011011111111111111110000000000010011
1111111111110011111111111111111100000000000001010000000000010110000000000010111000000000000001101111111111111110000000000000000100000000000011010000000001001110000000000110001000000000001001110000000000000010000000000000000100000000001010000000000000100010000000000001110100000000000011111111111111110001111111111101111000000000001001010000000000011011000000000000000011111111111011100000000000010111
1111111111110101111111111111010111111111111010101111111111001010111111111110111011111111101011001111111111000100111111111101011011111111111100010000000000001101000000000011001011111111110101110000000000001100000000000010110000000000000111010000000010011011000000000001110100000000000010110000000000001110000000000001100100000000010101110000000000110100111111111111101000000000000101100000000001010011