1111111111001001111111111011000011111111111001100000000001010100000000000110010011111111111011001111111111000011111111110011110111111111100101110000000000001101111111111111111000000000001101110000000000001011111111111110100011111111100100101111111111100001000000000000110100000000000110110000000000110101000000000010111000000000000110110000000000010001000000000001110000000000000100110000000000011000
1111111110101111111111110101000011111111010111011111111111111100000000000011010100000000001010010000000000101101000000000010001011111111101001101111111110001010000000000001000000000000001011100000000000011110000000000100001011111111111110100000000000000001000000000010011000000000000110100000000000110001000000000011011100000000000111110000000000111000000000000010111100000000000110110000000000011011
1111111111011000111111110111011111111111100110111111111111001001000000000010110111111111100100111111111111001000111111111100010011111111101011001111111111001011111111111110101011111111111110111111111111111010111111111100000011111111111111101111111111010010111111111111011000000000000000111111111111101010000000000000001000000000000100010000000000010000111111111111100111111111111101010000000000000110
1111111101011111111111110111110011111111111011100000000001000110000000000101101111111111101100111111111110110111111111111011001111111111110000101111111111100010000000000001110011111111111000111111111110101011111111111100000011111111110010101111111111110100000000000000010000000000000100000000000000000111111111111111010000000000000010110000000000001011000000000000001100000000000000001111111111011011
1111111111100010111111111110000011111111110101111111111111011000111111111110100011111111110100011111111111110110111111111111111011111111111010011111111111000001111111111101010100000000001000100000000000100011111111111111001100000000000011011111111101111111111111111110000000000000001000110000000000001000000000000001111111111111110010001111111111110000000000000001000000000000000000011111111111100111
0000000000111001000000000010010011111111101001111111111101110001111111111011010000000000011001010000000001000111000000000010000011111111111011001111111111011011111111111111101011111111111011100000000000110000000000000011111100000000001110000000000000000100111111111111101111111111111100110000000000100000000000000011101000000000000000001111111111101011111111111100100111111111110111011111111111101110