0000000001101001000000000100100111111111111001010000000000000111111111111101000100000000011110110000000000111101000000000000011100000000001011100000000000010011000000000000010000000000000001100000000000001110000000000000000000000000000110110000000000000011111111111101100011111111111111111111111111100101000000000001010111111111101011111111111111010111000000000011011111111111111111100000000000110000
1111111110011011111111111110110100000000001110000000000001000111000000000010011111111111110100000000000000010100000000000010101100000000000011010000000001010001000000000100011000000000000100111111111111110010111111111110001011111111110011010000000001000010000000000000101000000000000010001111111111101110111111111101101000000000010000010000000000000010111111111111010100000000000011100000000000000010
0000000000001000111111111111110011111111111010000000000000001101000000000010100100000000000000010000000001010011000000000000101000000000000111100000000000011100000000000000101000000000000001110000000000001111000000000001011000000000000000000000000001001011000000000010110100000000000100000000000000000011000000000000000100000000000101001111111111110110000000000000000000000000000100000000000000101101
0000000000100011000000000000011100000000000111000000000000101010000000000100010100000000001001100000000000010100111111111110101111111111110101001111111111001101000000000101011011111111111110011111111111010110111111111100010011111111100000110000000000101010111111111111110111111111101000101111111111001000111111111111110100000000011001111111111111110110111111111101001111111111111001111111111111111011
1111111111111111000000000001111100000000011101010000000000101010000000000101001100000000010000110000000000011110000000000000110111111111110011011111111111000110111111111111000000000000001010100000000000101001111111111110011011111111110011101111111110111111111111111101110000000000000110100000000000100000111111111011100111111111100111010000000000101101000000000100100100000000000101100000000000000111
1111111111111001111111111101111111111111101110011111111110110000111111111010000100000000000111100000000000010011111111111101100011111111111001101111111111010100000000000001101011111111111010111111111111110100000000000001000000000000001000000000000000110010000000000000100000000000000101010000000000101010000000000000111011111111110100011111111111101101000000000000011100000000001010010000000000001110
1111111111101101000000000001011000000000001101010000000000010101111111111110000011111111110001001111111110110001000000000000010000000000001101100000000000001101000000000100110011111111111110010000000000001001000000000001011000000000001101100000000000101001111111111110100011111111111101101111111111001010111111111111111000000000010100000000000000111110000000000000101100000000000100010000000000101110
0000000000001101000000000000000000000000001001010000000001101100000000000011110011111111111011011111111111101001000000000000110000000000000100111111111111111100111111111110000011111111111011110000000000001100111111111111000011111111111110100000000000111110000000000001111100000000000000011111111111101001111111111101111111111111111101000000000000011111111111111101100100000000000001000000000000000001
1111111110111101111111111101110011111111111100000000000000100100000000000000111111111111111101100000000000100011000000000001101011111111111111010000000000100010111111111101000111111111110101010000000000011101000000000010110100000000000010101111111111111010000000000001001000000000001001110000000000101000000000000001010011111111110111101111111111101011111111111111010100000000001000000000000000011110
1111111111110010111111111111100100000000001000110000000000100111000000000000010100000000000011010000000000000011111111111110010100000000000111100000000000100111000000000011101011111111110111001111111111001100111111111011000011111111110100110000000000100111111111111111011000000000000111001111111111110100000000000001001011111111111110100000000000010100000000000000101000000000001001010000000000011110
0000000000101101000000000101000000000000010101000000000000100111000000000000110100000000010000100000000000010001000000000000100011111111110011101111111110010111000000000011001011111111111011110000000000010001111111111111011011111111110101001111111111110011000000000000001111111111111111000000000000010101111111111110001011111111111110110000000000101001111111111110000000000000000000011111111111100000
1111111111010101000000000000001100000000001101100000000000110100000000000001001100000000000100001111111111110111111111111101000000000000001111010000000000011100000000000000100000000000000110100000000000000000111111111100110111111111111101111111111111110000111111111101101011111111110111101111111111101011111111111110011111111111110010011111111111011000000000000000111111111111111001011111111111101100
0000000000010001111111111100010011111111101110111111111111011110111111111011110011111111111001110000000000001011000000000000110111111111101001101111111110001000111111111110010111111111110100000000000000001010000000000000010111111111111001111111111111111001111111111100011000000000000011111111111111111000000000000000100100000000000011111111111111110111111111111110010000000000000001110000000000000111
0000000000100110111111111101111011111111110100111111111110110001111111111001101100000000000001111111111111000100111111111101011111111111110110110000000000000010000000000000101011111111111000001111111111100011111111111110111111111111111001110000000000001011000000000001110100000000000000111111111111011001111111111110010111111111111001100000000000000010000000000010110100000000000000100000000001000101
1111111111100110111111111110101000000000001000000000000000001011000000000010011011111111110101011111111111101110000000000000000000000000001000100000000001001111000000000001101100000000000010110000000000100101000000000010100100000000000001000000000000101111000000000000001100000000000111100000000000010100111111111111010100000000000000100000000000010111000000000001101000000000001010010000000000011100
1111111111010000111111111101110111111111110011011111111111000110111111111110001111111111101110111111111111100000000000000001011000000000000011110000000000011101111111111110111111111111110101111111111111101000000000000001100100000000001000000000000001010011000000000001011100000000001000011111111111111011000000000010110011111111111101110000000000010100000000000000100011111111111101010000000000101100