0000000001011001000000000001101000000000000000001111111111110010111111111111010011111111110101111111111111010100111111111110110111111111110000010000000000011010111111111110111111111111110111111111111111010011111111111110111111111111111001011111111111100101000000000000110000000000000111100000000000101011111111111111011100000000000110010000000000000010000000000001010100000000010001010000000000010111
0000000000011100111111111101100111111111110110110000000000010101000000000000101111111111111111000000000000001111000000000000000011111111110010001111111111111010000000000000110000000000000001111111111111101110111111111110110011111111111001110000000000000011000000000001001100000000010011110000000000101010000000000000111000000000011000110000000001011101000000000100011100000000001100010000000000010101
1111111111110101111111111101010011111111011111011111111111101010000000000000001111111111101100001111111110101010000000000100000100000000001111110000000000100100111111111110101111111111111111110000000001010001000000000101000011111111111111101111111111110000111111111111110000000000000010001111111111101100000000000001110011111111101111100000000000000000000000000000101000000000000100101111111111001110
1111111111110000111111111100100111111111101110101111111111110110111111111110011111111111110101011111111111001011000000000011111100000000010000000000000000000110000000000010001100000000000000100000000000101101000000000000111111111111110100010000000000001101111111111111101000000000000001011111111110111001111111111110110100000000000010011111111111101010111111111100111111111111100010001111111110000110
1111111111001100111111111111000111111111101010111111111110001101111111111011110111111111100000011111111111011001111111110100110011111111101001111111111111100111111111111100001111111111100010101111111111101100111111111100110011111111111000001111111111011110111111111100000111111111110000011111111111100000111111111101110000000000000001011111111110000000111111111010011011111111111000000000000000001110
1111111110100110111111111101000111111111111111011111111111111101000000000000101000000000001000100000000000010111000000000100111000000000000110001111111111110010111111111111101000000000001000110000000000100110111111111100101111111111111000001111111111111000111111111110110011111111110010001111111110110101000000000000101000000000000010001111111111110101111111111100111011111111110100110000000000000101