1111111111110111000000000001010011111111111010101111111111001110111111111011001011111111111010011111111111000110111111111110011011111111110001011111111111000011111111111100101111111111110100000000000000100011000000000011101011111111111001000000000000110100000000000001001011111111111100001111111111100111111111111110001100000000001110100000000000100011000000000010101000000000000100010000000000011000
1111111111010011000000000000100011111111110110101111111111010000111111111100100011111111101101011111111111011111000000000000111011111111111010111111111111101110000000000010010100000000000011010000000000001100000000000010101100000000001010110000000000100000000000000000010000000000000000011111111111110010111111111111111111111111110111111111111111110000000000000001100111111111111001001111111111011001
0000000000101101111111111111101111111111111111101111111111101110111111111011010100000000001001111111111111001001111111111100111011111111111101011111111111011100111111111111110100000000000000110000000000100001000000000000000011111111111000010000000001001111000000000001001111111111111011101111111111111111111111111111111100000000001000101111111111000010000000000000001100000000001010000000000000101111
0000000001000101000000000010001100000000000100001111111110100000111111111001100000000000001011001111111111111101111111111110001111111111111000101111111111011110111111111111011000000000000110100000000000101111111111111101110111111111110000110000000000110000000000000001110111111111110001111111111111011000111111111111001011111111111001011111111111010001000000000001100000000000001101010000000000000100
0000000000111110111111111111110100000000001100010000000000011010111111111100101100000000001111111111111111010100111111111110100011111111111111001111111111100101111111111110100111111111011101001111111111111000000000000001110111111111111001011111111101101101111111111010101011111111111101001111111111100111111111111110010011111111110101001111111111000001111111111100101111111111111011001111111111111100
0000000000000110111111111100110011111111110001011111111111100010111111111101111111111111111101110000000000000111000000000001110000000000001110000000000000010001000000000011110100000000010011100000000000001100111111111101000111111111111000010000000000010010000000000010100100000000000110001111111111100011111111111110011011111111110011011111111111001100111111111001001011111111100111011111111110001110