1111111111111011111111111110101011111111110010101111111111111010111111111101111100000000000100001111111111110000111111111010011011111111101100011111111111101100000000000001001011111111111000011111111110011000111111111111110111111111111011010000000000000010111111111011101111111111101111111111111111110100111111111111011011111111100011111111111101101110111111111101111100000000000111000000000000010101
0000000000101111000000000000010011111111100101111111111111000010111111111110101100000000000000111111111111010110111111111001101000000000000100110000000000001011111111111111101011111111110011111111111110111100000000000000110111111111110111101111111110111110111111111100110011111111111010110000000000010001111111111110101011111111111111111111111110111010111111111111111000000000000110000000000000000000
0000000000011100000000000001001011111111111010001111111110100001111111111110100000000000001010100000000000001111111111111001111011111111111011100000000000100111000000000011100111111111111010001111111101111001000000000001101100000000001101000000000000111000111111111010101011111111110111110000000000000010000000000001001100000000000010011111111110111101000000000010010100000000000101110000000000000010
0000000000001111111111111101000000000000000011111111111110101111111111111111010111111111111110011111111110111000111111111000010111111111111110000000000000100011000000000001000011111111110000011111111111010000000000000011001000000000001011000000000000111011111111111010011000000000000011010000000000111101000000000000001100000000000000101111111110111011000000000011001100000000001001001111111111101010
0000000000100001000000000011000100000000000110111111111111111010111111111101001100000000000011100000000000110011111111111111101011111111110001001111111111010101000000000010101000000000001100011111111111110101111111111110010000000000000000010000000000101000000000000001010111111111101111101111111111111010000000000000010100000000000100101111111111010101111111111110010100000000000101011111111111110101
0000000000011010111111111101011011111111011011001111111111010110000000000001010100000000000110001111111111001011111111111010110000000000001010000000000000011101000000000010110111111111101100011111111111101001000000000010101000000000000001011111111111100001111111111011010000000000000010110000000000100010111111111101011011111111111100010000000000010111000000000010110100000000000011001111111110001101