1111111111101010000000000000010011111111111111100000000000000010111111111111100000000000000001101111111111110111000000000000001100000000000010000000000000010011000000000001110111111111110011101111111111100110000000000000010000000000000011011111111111101101111111111101011011111111111010100000000000001010111111111110100011111111110111011111111111001110111111111111011000000000001001101111111111100100
0000000001011101000000000001111000000000000011110000000000000001111111111101100100000000001000110000000000010000111111111101010111111111111001001111111111011011111111111101101011111111111001100000000000000000111111111110000111111111111111101111111111110001000000000000001111111111111001111111111111101011000000000001001000000000010010100000000000011011111111111110000111111111110110101111111111101111
0000000001000101000000000000100011111111111101101111111111101100111111111111001100000000000000101111111111110001000000000000100000000000001011101111111111111011000000000010100100000000000000000000000000011100000000000001101100000000000101101111111111100100111111111110001111111111110100100000000000000011111111111111010000000000000001110000000000000011111111111101010011111111110101101111111110110101
0000000000011101111111111111110011111111111010010000000000001011111111111110100000000000000010110000000000011010111111111110100011111111110111110000000000100001111111111111001100000000000001011111111111111010111111111110111100000000000000001111111111000011111111111110000111111111110100000000000000000101000000000000001011111111111100110000000000000100000000000000111000000000000010101111111111001110
1111111111101101111111111110110011111111110111001111111111111110111111111111110100000000000011001111111111110000000000000010101100000000000011101111111111110100000000000000000111111111111001000000000000111110000000000000100011111111111110111111111111100010111111111011100000000000000010101111111111100010111111111110000111111111110010110000000000010011000000000001000011111111111111001111111111011110
0000000000001000111111111111110000000000000000010000000000000010111111111111011100000000000110011111111111111100000000000001001100000000000010110000000000001100111111111110111111111111111100001111111111010110000000000001001011111111111101100000000000001000000000000000100011111111101010101111111111011011000000000010001011111111110101101111111111001100111111111100100100000000000001000000000000111000
0000000000000000111111111111110000000000001000000000000000011010111111111101011111111111101101111111111111110100000000000000001100000000000000110000000000001011111111111010100111111111111101001111111111111111000000000000110100000000010100001111111111101110111111111111000011111111111111111111111111001110000000000110000011111111111000110000000000001101000000000011011111111111110100000000000000100100
1111111111111000111111111111001011111111111110000000000000001001000000000000100011111111111000110000000000000111000000000001010011111111110010101111111111011100111111111110001000000000000100111111111111111000000000000000000011111111111011010000000000010001000000000010010011111111111100001111111111101111000000000001101100000000000011001111111111110011111111111100101111111111111000000000000000101101
1111111111111010000000000010010111111111111100011111111111011100000000000000101000000000001001100000000000110111000000000001011000000000000010010000000000001010000000000101010111111111111011110000000000101000111111111110010100000000000101101111111111101101111111111110100100000000000010000000000000100100000000000010010011111111111110101111111111111010111111111001001011111111101011101111111111000011
0000000000111001111111111101101011111111111011010000000000101011000000000000001111111111110101001111111111111110111111111110010011111111111011110000000000110000111111111100100000000000000001010000000000010010111111111111000100000000001010100000000000111010000000000010100000000000000110101111111111100010000000000001000111111111110000101111111110110101111111111100011011111111110010100000000000001010
1111111111111011111111111111111111111111111100100000000000000110000000000001110011111111111000100000000000010101000000000000100011111111111011110000000000000111000000000000001000000000000001111111111111101111111111111111101100000000000000101111111111111101111111111101101111111111111001110000000000100101000000000000010011111111111110111111111110110110000000000001011000000000000110111111111111111101
0000000001000100000000000001010111111111110110000000000000000001000000000010100100000000000010011111111111111111000000000001110000000000000011110000000000011011111111111110111000000000000010010000000000000111000000000100100100000000000011010000000000000101111111111110001011111111110101011111111111101111111111111110001111111111110111011111111111001000000000000000011000000000000011101111111111111101
0000000000001000111111111111010011111111111010001111111111111111000000000000001111111111111100101111111110111011111111111100100011111111111001001111111110111111111111111100111111111111101110100000000000000010111111111110100011111111101110111111111110111111111111111110101111111111111101001111111111001110000000000000010011111111111101110000000000111111000000000010100011111111111110100000000000000001
1111111111110111111111111100111011111111110111010000000000011011111111111111000000000000000001110000000000001111111111111110001011111111111111001111111111101101111111111111101000000000000010111111111111111111111111111011110011111111111010110000000000100101000000000000101011111111110100101111111111100111000000000101010011111111101000001111111110111001111111111100101100000000000001000000000001111000
0000000000010111000000000000000100000000000101110000000000011010111111111110001111111111110101001111111111100010111111111110001111111111111001111111111111010111111111111101100011111111111101110000000000010001111111111110101011111111111111100000000000000110000000000001100100000000000101001111111111001010111111111111111000000000000001001111111111110100111111111101001111111111110101110000000000010101
0000000000000000111111111111001111111111111111111111111111101101111111111111101111111111111110101111111111101110000000000001010111111111111001001111111111110000111111111011011111111111111100111111111110110110111111111110001100000000000011001111111111101010111111111111111111111111110101011111111110011100111111111101000000000000000111100000000001001100000000000001111111111111101110111111111110100001