0000000010011111000000001001110000000000000000100000000000001101111111111111110000000000100000010000000000101101000000000010000100000000000100011111111111110110000000000001011111111111110100001111111111110101000000000001101000000000000000010000000000001001000000000000011100000000000001110000000000001111111111111111111000000000001000010000000001100010111111111111111011111111111110110000000000010100
1111111110111110111111110110011111111111101111011111111111110110000000000001001011111111101110011111111110000011111111110111011011111111110010010000000000011001111111111010110111111111111101110000000000000111000000000000010100000000000101010000000000011110000000000010001100000000001011110000000000100011111111111111101100000000001110000000000000000010000000000000010100000000000001000000000000101111
1111111110111000111111111000101011111111100100011111111110111111000000000010100111111111101001101111111110111110111111111110101100000000001111100000000000100011111111111110010000000000000100001111111111101011000000000101010000000000000010100000000000010111000000000010111111111111111010111111111111101011111111111110110111111111100111101111111111010100111111111110010011111111110001001111111110101111
0000000000011110111111111100100011111111111101011111111111111111000000000100100111111111111001101111111111001011000000000000101000000000001100001111111111110001000000000000111100000000001000101111111111100101111111111110100011111111110010110000000000110101000000000010100000000000000110001111111111101100000000000001100100000000001110010000000000001111111111111111000111111111110111011111111111000000
1111111111001101000000000010000000000000001100010000000001100110111111111110111011111111111010000000000000010010000000000100101000000000001100001111111111011000000000000010000100000000000010010000000000011101000000000011010111111111111110010000000000111010000000000000001011111111110100110000000001000000000000000000001000000000001010011111111111111010000000000000110111111111111110001111111111100001
0000000001110101000000000010000000000000001001100000000000010011111111111011111000000000010010100000000001000010000000000000100100000000000000000000000000100000111111111111001000000000000010011111111111101011111111111110110000000000001101100000000000001100111111111101000000000000000010101111111111111010111111111111010011111111111000111111111111001011111111111111001100000000001011010000000000000101
1111111111001000000000000000100011111111100011001111111111111001111111111111100111111111111011101111111111101000111111111100010111111111111101001111111111110000000000000001000011111111110101110000000000100010111111111101100100000000000100010000000001001011000000000001001100000000001100100000000000000100000000000010001111111111110101100000000000100011000000000000110100000000000010010000000000010101
1111111111000111111111111101010011111111111011011111111111111110111111111111000111111111111001101111111111110100000000000010100011111111111111101111111111110110111111111101000011111111110100000000000000010001000000000001100000000000000101101111111110111001111111111111000111111111111011100000000001000100000000000010100100000000010000011111111111110000111111111101010000000000001101011111111111111100
0000000000001001111111111011111111111111101100011111111101101111000000000000101011111111110100011111111111011110111111111111010111111111111001110000000000110110111111111111011000000000000011001111111111010110000000000010011100000000010000111111111111110111000000000010110100000000001010110000000000000111000000000001000111111111101111101111111111110101111111111100100111111111101111111111111110100101
1111111111100001111111111100000011111111101101011111111111000101111111111001011111111111111000101111111111010100111111111101100011111111110101111111111111100010111111111101101111111111111101110000000000101100111111111101111111111111111101100000000000110001000000000000010100000000000100111111111111111000000000000001000011111111111011101111111111100001000000000001011000000000010001100000000001101000
0000000001101000000000000010011100000000011100010000000000000010000000000001000000000000000110111111111111111100000000000000101100000000000111001111111110111110000000000000110011111111111111000000000000011111000000000000000011111111110000110000000000111110111111111111110100000000000010100000000000000010000000000000001000000000000001100000000000111100000000000000101111111111111100001111111111111010
1111111110110100111111111100000011111111111000111111111111100101111111111110000111111111100101011111111111000111111111111110110000000000001001001111111111011010111111111110000000000000010000010000000000111000111111111111010011111111110010000000000000111010000000000000110100000000001110111111111111110110111111111111110111111111110101001111111111111100111111111100011011111111110010011111111111111001
0000000000010110000000000000001011111111111101011111111111110001000000000001000000000000010010010000000000100011111111111111010111111111101101011111111111000001000000000000100011111111111100101111111111001110000000000000101100000000000010001111111111011110000000000001011000000000000100001111111111111000111111111111110000000000000010110000000000010110000000000011001100000000000011110000000000000110
0000000001000100000000000000101000000000010001010000000000110010111111111001010011111111111110000000000000110011111111111110011111111111110001111111111111101010111111111101010000000000000100011111111111101010111111111111100111111111101110000000000000100001000000000001111000000000001000100000000001001001000000000001001111111111111010001111111111101101111111111110110100000000001101010000000001000101
0000000000011101111111111101001011111111010110001111111110011111111111111111110111111111111011111111111111110001111111111011101111111111101110101111111111011111000000000000100000000000000100110000000000010100000000000000100100000000000111100000000001000010000000000001111100000000000010010000000000010011000000000010010111111111111101101111111111111010000000000001001100000000000000110000000000001011
0000000000001001111111111100000111111111111000000000000000001110111111111111110011111111110110010000000000000100111111111110101011111111111010000000000001010101000000000001011000000000000000101111111111010010111111111100011000000000001100100000000000010001111111111011110011111111101100111111111111111011111111111111010011111111111101111111111110110110111111111100001000000000000000100000000000110011