1111111111011111000000000001000111111111110100110000000000011101111111111111000000000000001101110000000000001010000000000000001111111111111111100000000000010000111111111110110111111111111000111111111111110101111111111111001100000000001010101111111111101110111111111010000100000000000100100000000000000100000000000011100011111111101000001111111110101010000000000010000011111111110111010000000000011001
0000000000101011000000000001101111111111110001111111111111100010111111111010111000000000001010110000000000101101000000000001111111111111111011001111111111001101000000000000011111111111111011100000000000011111000000000011011011111111111001101111111111111111000000000000100100000000000111010000000000001101111111111100111011111111111100010000000000101101111111111110100111111111111010011111111111110001
0000000000011011000000000010110011111111110111011111111111111001000000000000001000000000000101010000000000101110111111111111100100000000000011111111111111110100111111111101100011111111110111100000000000001010000000000010110100000000001010001111111110110100111111111111110100000000000010100000000000010000000000000001101011111111110110100000000000100111000000000010000100000000010101010000000001010100
0000000000011111111111111101110111111111110011000000000000001001000000000010101100000000000000100000000000000110000000000011000100000000001011110000000000001100000000000010100011111111110011000000000000000001000000000100001111111111110101111111111111001001111111111011100011111111111010000000000000011111111111111110010111111111101110111111111111100110000000000010000000000000010111010000000000101000
1111111111100111111111111111111011111111110100110000000000010001000000000010010011111111111000101111111111110011111111111010111100000000000111110000000000001001111111111100101100000000000011111111111110101101111111111010001011111111110110000000000000011111000000000001000111111111110000001111111110101100111111111101101000000000000011111111111111011110111111111110111000000000000101010000000000011101
1111111111101111000000000001101111111111111111100000000000000001111111111101001111111111110010000000000000000001000000000000011100000000000011110000000000010011111111111111111000000000010101000000000000011001000000000010000000000000001100111111111111100111000000000011101011111111111101110000000000110101000000000000010011111111111010000000000000010011111111111010010111111111111010000000000000001000
0000000000000001111111111110100000000000000111100000000000001110111111111101111011111111111010000000000000000001111111111111100111111111110101010000000000001001000000000000000100000000000110011111111110111001000000000010010100000000001101100000000001000100111111111111101100000000000001111111111111011001000000000000000100000000001010011111111111110000111111111110101111111111101111101111111110111011
0000000000111010000000000100011011111111111110111111111111001100111111111010100111111111111101000000000000000001000000000010110011111111111011010000000000001010111111111100011000000000000100110000000001011111000000000001001111111111111010100000000000001011111111111111100100000000000011000000000000000001111111111101111000000000011111110000000000110101000000000001010111111111111110000000000000111010
1111111111010100000000000000001111111111111101011111111111110111111111111111001011111111110111000000000000000111000000000000001111111111110001011111111111101000000000000001001000000000000001001111111111101110000000000011111000000000001011001111111111101000000000000000011100000000000000010000000000010000111111111111101011111111111010111111111111110010111111111110001011111111111100101111111111011000
0000000000000101000000000000011100000000000110000000000000100001000000000001001100000000000010011111111111101111000000000000001011111111110010111111111111110001111111111111110000000000010110110000000000111010111111111111010111111111110000010000000000000001000000000011110000000000001000001111111111100001111111111100010111111111111110110000000000000101111111111111000111111111111010001111111110100110
0000000001011100000000000001010000000000001011110000000000111110000000000000100100000000000011111111111111010001000000000001011000000000000110011111111111101100111111111111001111111111101001111111111111111101111111111101111111111111111111111111111110110110111111111101000111111111111001011111111111011100000000000001111011111111100011010000000000011101111111111110111000000000000100010000000000100111
0000000001000011111111111101001111111111101101101111111111110010111111111111011000000000001101111111111111111001000000000000110100000000001010001111111110111001000000000001011100000000000010010000000000010010000000000100000100000000001011001111111111001000000000000001100011111111111001110000000000011110111111111101110111111111111001110000000000001110000000000001110000000000000100010000000001100010
0000000000011111111111111111111111111111111010100000000000000000111111111110000111111111111101001111111111100100111111111110111011111111111010101111111110000001111111111101010111111111111100001111111111101001111111111110010111111111101011010000000000110110000000000001101111111111111010001111111111011100000000000110000000000000000000000000000000000101000000000000110100000000001000000000000000011100
0000000000000101000000000000000011111111111000000000000000011110111111111111101000000000000111110000000000000011000000000000011100000000000000101111111111101100000000000010001000000000010010010000000000101110000000000011000000000000000010011111111111100111000000000001101011111111111011111111111111101010111111111111001111111111111011110000000000100101111111111100111011111111101100011111111111010100
0000000000010110000000000010100000000000001000011111111110111100111111110111110011111111111111100000000000000011111111111111000100000000000000101111111111000010000000000011000100000000000110010000000000101011000000000001001100000000000100000000000001000101000000000010010000000000000110000000000000010100111111111001110000000000000001011111111111111101111111111100101111111111111011111111111111000100
1111111111100100000000000001010100000000000011100000000000000101111111111110101111111111111011011111111111001110111111111011110011111111101101110000000000010000111111111111001011111111111100000000000000001101111111111111111111111111110100000000000000100011000000000010100011111111111111000000000000011101111111111111110000000000010100010000000000111010000000000000110000000000000010110000000000010010