0000000001000100000000000110100111111111110101010000000000100100000000000001001000000000001011001111111111111101111111111010111011111111111110011111111111110000111111111101011100000000000100111111111111001101111111111111010011111111110100010000000000010100000000000010010111111111111100111111111111110101000000000000101100000000011000001111111111111100111111111111101100000000001010110000000000000000
1111111111001101111111111110010100000000000000100000000000100101000000000010110100000000000001010000000001001000000000000011100100000000001010000000000000011110111111111010010011111111110101111111111110110100111111111011010011111111110001000000000000000111000000000000101111111111110101111111111111011100111111111101001100000000000001000000000000000100111111111110100111111111111010100000000000011001
1111111111110111111111111100001100000000000011010000000000011100111111111110110011111111111010000000000000011110000000000000110011111111111011100000000000000001000000000011100000000000000011100000000000001110000000000011110000000000000101000000000000110010000000000100011100000000000010111111111111010000000000000000101011111111101010000000000000001010111111111111001011111111111101010000000000001001
0000000000001100000000000100101000000000000110100000000000100111000000000010011100000000000110000000000000000111000000000100101100000000000010000000000000011001111111111110011011111111111010111111111111110010000000000001000100000000000000101111111111010011111111111101000011111111110110001111111111111001111111111111000111111111111101000000000000000000111111111110100111111111110100000000000000010010
0000000000001001000000000001010100000000001001000000000000101000000000000001000111111111111110010000000000011001111111111101001100000000001000101111111111011011000000000000011100000000000011101111111111010111111111111011010011111111100110100000000000001001111111111110000011111111110101111111111110001100111111111110011000000000000000001111111111101011111111111100001111111111101011011111111111101101
1111111111010100111111111110001111111111101110100000000000001001000000000101100100000000000011011111111111101010111111111111011111111111110000010000000000101100111111111110101011111111111110101111111111101110111111111111111100000000000111101111111111110011000000000010011111111111111100010000000000001000000000000100100011111111110110001111111111101000111111111110101011111111101110010000000000011000
1111111110011111111111111111001111111111111110000000000000001010111111111101101011111111110010100000000000101111000000000011101000000000000110111111111111100001000000000000101000000000001100110000000000110111000000000001010000000000001001000000000001100100111111111110111011111111111101101111111111111000000000000100100011111111110011101111111111010001000000000000010000000000000111000000000000011001
0000000000011000000000000011011100000000001011001111111111101110111111111101111111111111110100111111111111111111000000000100111000000000000000110000000001010100111111111110001111111111111111100000000000010100000000000000011100000000001110000000000000010101111111111110100011111111111010110000000000010010111111111110111011111111100111011111111110010110111111111010001011111111110110101111111111110001
1111111111000101111111111100101111111111111001000000000000010010111111111111101000000000000000101111111111101010000000000010110000000000000011010000000000111001000000000100101000000000010100100000000000011000000000000011111100000000011001001111111111111110111111111111010100000000000111000000000000011001000000000000100011111111100011101111111111001110111111111110010111111111110011111111111111110110
1111111110110100000000000010010000000000000101001111111111001001111111111101100111111111011000001111111111110111111111111110011111111111111000011111111111111111111111111110011111111111110101000000000000000001111111111100000100000000000000011111111111001001111111111101110111111111111100001111111111001000000000000001100111111111111011110000000000001101000000000000001100000000001011100000000000110110
0000000000111000000000001000101000000000001000010000000000001011000000000101010000000000001011111111111111110110000000000001000100000000000001010000000000000010111111111110110111111111111100101111111111101101111111111100100011111111111011111111111111110011000000000000010111111111111101101111111111100001111111111111000011111111111010010000000000000010000000000001110100000000000011100000000000010110
0000000000001011111111111110100100000000000001101111111111100101000000000001100011111111111110010000000000101010000000000011111100000000000111101111111111111000000000000010010100000000001001110000000001000101000000000100000011111111110111110000000000100110111111111101111100000000001010011111111111110110000000000000011100000000000000010000000000010010111111111101000111111111111010100000000000000011
0000000000111110111111111110100111111111111110110000000001000000111111111010111011111111111001101111111110011101000000000000010100000000000010101111111110000101111111111111010011111111100111011111111111111100111111111110010111111111111001110000000001000000000000000000011100000000000100011111111111001111000000000000101100000000000000010000000000010111111111111111110100000000000011000000000000000010
0000000000000010111111111010101011111111100010011111111110110001111111111100111100000000000010101111111111001011111111111011110111111111101110001111111111100011000000000001001011111111111001101111111111001011000000000001010100000000000011000000000000010101000000000010100000000000000000111111111111111011000000000011101011111111110101010000000000010000000000000001110100000000000010110000000000111010
1111111111000011111111111010101111111111111101100000000000101100000000000001101011111111100010010000000000011100000000000100100000000000001010001111111111100001000000000001011111111111111101110000000000011111000000000000001111111111111011110000000000010011000000000000100011111111111110101111111111110100111111111111101111111111111001111111111111101011111111111111010000000000000011000000000000010010
1111111110110100111111111101010111111111111000111111111111100111111111111111010111111111111000001111111111010110000000000010010000000000000101010000000000011111000000000000011100000000001011010000000000110110000000000010100000000000010000001111111110100100111111111000110011111111101111111111111111111010000000000010000111111111011000001111111100101000111111111110001111111111111110011111111110011110