0000000000100101000000001010110100000000000110000000000000100100000000000010101100000000001000110000000000000000111111111110001000000000001001001111111111111000111111111100101011111111100110011111111111010100111111111111110111111111111111010000000001010000000000000101111100000000000000111111111111111000111111111111101100000000001011100000000000110000111111111111010111111111111100110000000000000110
1111111110001111111111111000011111111111101001011111111101111111111111111111011111111111011001101111111110110111111111111111110011111111100011111111111111001000000000000011010100000000000010111111111111100100000000000100001100000000000100010000000000110101000000000000111000000000000111110000000000001010000000000001111000000000000101110000000000100000111111111111101111111111111001101111111111110001
1111111110100110111111111001100011111111110010001111111111101101000000000001000111111111110101010000000000010101000000000001010111111111101111101111111111011000000000000011010000000000001101010000000000000000000000000100111100000000001001111111111111111011000000000010001000000000001001110000000000101110000000000000011111111111111010001111111111100010111111111010100011111111110011011111111111100000
1111111111101001111111111110000111111111110111011111111111110001000000000100010111111111111111000000000000100100000000000001000011111111110111101111111111110001000000000001011100000000001001111111111110001101111111111100101111111111111000001111111111110101111111111101010011111111111011001111111111101000111111111101101000000000010100010000000000010101111111111101101000000000001010000000000000000011
1111111111111110000000000001011000000000000010000000000000111001000000000100110000000000000000011111111111100111000000000000111100000000001111100000000000110100000000000000101100000000000110011111111111110010000000000101010111111111111010000000000000100010111111111111111011111111111000101111111111111110111111111110101100000000000000010000000000001110000000000000100011111111110100101111111111101100
0000000001000100000000000101101011111111111110100000000000001110000000000011000100000000000110100000000001011000111111111100001011111111111111101111111111010010111111111110111000000000001011101111111111001011000000000000110111111111111110111111111111101010000000000000111011111111111001110000000000000001000000000001000111111111100011011111111111100110111111111110111100000000000100101111111111111001
1111111110000110111111111010100111111111110011111111111110100011111111111011101011111111111000101111111110101010111111111100111011111111100010011111111111011001000000000011000000000000000110010000000001001101000000000001010100000000011011010000000000111111000000000001110100000000001111001111111111111001000000000011010111111111111010101111111111010010111111111110001111111111101101001111111110101110
1111111111101010111111111110110011111111110101000000000000000000000000000001001011111111111010010000000000000110000000000101010111111111110101100000000000001000111111111111100111111111110110110000000000101000000000000001001100000000001001010000000000001000111111111101000111111111111010011111111111100111111111111110101000000000000000010000000000100111111111111111100111111111111001100000000000011111
1111111111010101111111111001100011111111100111011111111110011011111111111101001100000000000000011111111111010101000000000001011111111111111110001111111111100001000000000000001000000000010010111111111111111010000000000101001100000000000100101111111111111101000000000010111000000000000101100000000000111001000000000001011011111111111101000000000000101011111111111011010111111111101101101111111110100101
1111111101101000111111111010001011111111110011011111111110001010111111111010011000000000001110010000000000000010111111111100001111111111111110010000000000010101000000000010100000000000000100110000000001010111111111111110000000000000001101100000000000010110000000000000111000000000000101010000000000001001000000000001000000000000000000011111111111010101111111111100001000000000001010010000000000101111
0000000001000000000000000010001000000000001001000000000000100010000000000111110011111111111010010000000000010000111111111110010111111111111111000000000000000110111111111110101000000000000100101111111111110000111111111110000011111111111001001111111111011101111111111110000111111111110111111111111111111110111111111111001111111111111111100000000000000000111111111111101100000000000100001111111111111111
1111111111001111111111111011101011111111100000001111111111011001111111111001111000000000000110000000000000011011111111111111110000000000000011110000000000101110000000000011001100000000001011101111111111111011111111111110011111111111111110110000000000000101111111111101110111111111110110010000000000011110000000000000101100000000000000101111111111101101111111111111110011111111111110001111111110100101
0000000000110101000000000000110111111111111010000000000000101101000000000000000100000000000011010000000000101011111111110111000111111111111010101111111111000001111111111100110100000000001010011111111111101100111111111100001100000000000101111111111111101000000000000101001100000000000100101111111111101101111111111111101111111111101111100000000000000100000000000011001100000000000010100000000000111100
0000000000111001111111111100011111111111111000000000000000000110111111111000100000000000000001000000000000001100000000000000111011111111101110010000000000000110000000000000100000000000000011010000000000110111000000000010111000000000001001011111111111111000111111111111101000000000000111010000000000100000000000000011000111111111111001011111111111000011111111111101100011111111111011010000000000001111
0000000000011011111111110101101011111111011111111111111110011010111111111011101011111111110111001111111111010001111111111111100111111111101100101111111110011100000000000110101100000000001111010000000000010110000000000010010100000000100101010000000000101111000000000001101100000000001010110000000001011110000000000011011011111111111111101111111111100010111111111100011111111111101011011111111111010111
1111111111101101111111111101010111111111111000001111111111000011111111111111011100000000010101100000000000110110111111111100110011111111110111111111111111011011000000000011001000000000001101010000000000011111111111111110111111111111110111000000000001001100111111111101101100000000000100111111111111100111111111111101010011111111111000011111111110111000111111111100111011111111110101111111111111110010