1111111111011001000000000100000100000000010110000000000000000111000000000001010111111111111110111111111111100010000000000100101100000000001011101111111111011001000000000001101111111111110101000000000000000011111111111111111111111111110011101111111111110100000000000000010111111111110001011111111111011000111111111111110100000000000101000000000001001101111111111101001111111111110111011111111111110000
0000000000011000111111111101101011111111110101101111111111100100111111111110101011111111111101001111111111111101111111111110000111111111111111101111111111010011111111111111101000000000000000001111111111110110111111111111011011111111111100101111111111111001000000000010010000000000001101010000000000011110000000000010001100000000000000110000000000100001000000000001100000000000000010110000000000011001
1111111111110010111111111101011111111111110111111111111111100101111111111011101011111111111111010000000000011110000000000100000011111111111101011111111111011100000000000000100100000000000101100000000000100101111111111110111000000000000010000000000000010001111111111111000100000000000111110000000000001011111111111110101111111111111000111111111110110000111111111101010011111111101011111111111111001000
1111111111011100111111111101110011111111100011101111111110011011111111111011100011111111110111101111111111010101111111111110010011111111101011001111111110110110111111111111101111111111111110000000000000110110111111111110111100000000000010011111111111100000111111111110101100000000001001100000000000001100000000000000110111111111111110001111111110110010111111111100100011111111100111101111111111100000
1111111111011010111111111110100011111111111100101111111111001001111111111101110011111111110111110000000000000011111111111100111111111111111110010000000000100001000000000010010111111111111011010000000000001111111111111100111111111111110011110000000000001111000000000001101100000000000101000000000000000101111111111110111011111111110110001111111111000110111111111100110011111111101111001111111111000111
0000000000000110000000000011010000000000000010111111111111100100111111111100010111111111110011100000000001000001000000000011000011111111111111101111111111111011111111111101111111111111110101100000000000111001000000000000000011111111111010101111111111111101000000000010001111111111110000011111111111111000111111111110110000000000000010000000000000010101111111111010010011111111101110001111111111011111
0000000000001000000000000000101111111111111111011111111111001010111111111011000111111111111111100000000000011111000000000001011000000000001110000000000001001011000000000000010111111111110100101111111111100010000000000001110100000000000100010000000000110111111111111111001000000000000111110000000000011010000000000010001011111111101101011111111111000111111111111100111111111111110010011111111111100101
1111111111111010000000000001110000000000000100101111111110101101000000000000100100000000000111110000000000001010111111111100111011111111111101010000000000011010000000000000010111111111110110111111111111110010000000000001010011111111111000011111111111010010111111111011110111111111101011111111111111111100000000000010101111111111111110011111111111010101000000000000001011111111111100011111111111110111
1111111111101010111111111101110011111111111001110000000000001000111111111111011100000000000110100000000000100100000000000011001100000000000011110000000000011010000000000010001111111111110110000000000000100100000000000010001100000000000101110000000001001000111111111111001100000000000100101111111111110111111111111111100000000000000001111111111111101111111111111101010011111111111010111111111111010100
1111111111101100111111111111010100000000000110100000000000011100111111111011111111111111111100100000000000001011000000000000110100000000000010010000000000001011111111111111011100000000000010111111111111111011000000000110001100000000010111100000000000010110000000000011010000000000001100100000000000000101000000000010101011111111110111111111111111110100111111111101100111111111110010110000000000011100
1111111111010010000000000000001111111111110101111111111110111010111111111011111011111111111001011111111111101100111111111110110111111111111100001111111110111110000000000000010100000000000110110000000000001010000000000000011011111111111001111111111111101010000000000001110011111111111101100000000000000001111111111101101100000000000001111111111111111011111111111011000011111111100101001111111111100011
1111111111010110111111111010111011111111110001101111111111000100111111111111111111111111111000101111111111001010111111111101000111111111110011011111111111101010111111111110010100000000000100111111111111110100111111111100111011111111111110101111111111100110000000000000111000000000000001001111111111101100000000000010000111111111111010001111111110111011111111111111011111111111110100111111111111100101
1111111111011000111111111110111011111111110110101111111110110010000000000000100111111111111011000000000000001100111111111111101100000000001011110000000000000101111111111111110000000000001110110000000000010111000000000010001100000000000000101111111110110110111111111011001111111111110110110000000000010110000000000100101000000000000000101111111110110010111111111011110100000000000110000000000000100101
0000000000000110000000000000110100000000000010110000000000100001111111111110000111111111110001011111111111101001000000000000010100000000000100110000000001000001111111111111011111111111111110000000000000000011000000000001100100000000001011101111111111100101000000000010000100000000000011110000000000000111000000000011011011111111101101101111111111010100111111111011111111111111110001111111111111101010
0000000000011100000000000000110111111111110100101111111110011101111111111101001000000000000111000000000000100010000000000001010000000000001001100000000000010011000000000000001011111111110100011111111111110010000000000000011000000000000111000000000000011100000000000010001100000000001000000000000000011000000000000011010111111111111111011111111111101000111111111110010011111111110001111111111111110111
1111111111111000111111111111000111111111111101111111111111111110111111111100101100000000000111110000000000101101000000000100000100000000001101110000000000010010000000000001111000000000000100011111111111011100000000000001001100000000000110110000000000000101111111111111010111111111101101011111111111110101000000000000100100000000000010010000000000011110111111111110110011111111111000011111111111101011