1111111111100001000000000001100011111111110101111111111111001100111111111110101000000000001101000000000001000000000000000000010000000000000101011111111111101000000000000000110100000000001110011111111111111110000000000000110011111111111010010000000000100111000000000000110000000000010011111111111111101010111111111011000111111111110011001111111111011111000000000101110000000000000111011111111111100000
1111111111000011000000000001010100000000001001000000000000001110000000000001111011111111111101000000000000110000000000000010001100000000001010000000000000101010000000000100101000000000000101010000000000011010000000000000110100000000000100110000000000000011111111111110110011111111111010110000000000010000000000000001111000000000001100001111111111110100111111111100110011111111111000000000000000000110
1111111111110110000000000000111111111111110111101111111111111111000000000110111100000000010001000000000000110110111111111110110000000000000001111111111111011101111111111111010111111111111011110000000000010101111111111110011011111111101100111111111111111100111111111111011111111111111001111111111111010001111111111111101000000000000011100000000000001010000000000000000011111111111101001111111111011110
0000000000100110111111111100011111111111110111000000000000100100000000000111101100000000000101010000000000010101111111111110111100000000000011000000000000001000000000000010101011111111110100011111111111001011111111111101000111111111110000110000000000000010000000000010110011111111111011001111111110101101111111111100011000000000010010100000000000110111111111111111001111111111110110001111111111010100
0000000000001001111111111101110111111111111111100000000000001001000000000100010000000000000101011111111111001100111111111101100011111111101000100000000000000011111111111110000111111111101111100000000000100100111111111011111011111111111011110000000000010110111111111100101011111111111101010000000001000001111111111110011100000000000000011111111111011010000000000000110100000000001111101111111110110001
0000000000100101000000000101000111111111101110101111111110101110111111111010111100000000010010000000000000101011111111111101111100000000000010101111111111001100000000000000100100000000001100011111111110100111111111111101101011111111101110100000000000000001111111111111110100000000000000101111111111110000111111111101010111111111111111010000000000110010000000000011101000000000000111111111111111111101
1111111111111111111111111111100000000000010000100000000000110001111111111111100000000000000101000000000000100101000000000000101111111111111000000000000000000011111111111110010100000000001011001111111111110001000000000011100000000000011100100000000000111100000000000001010111111111101011010000000000010101000000000101101100000000000111110000000000010000111111111110101011111111111111100000000001010110
0000000000000110111111111110110000000000000101110000000000000010000000000011110011111111110110010000000000010110111111111111000111111111101011000000000000000000000000000001010000000000001000111111111111000101111111111100100111111111111000010000000001001010000000000011011111111111111000101111111111010100000000000000110011111111110000001111111111001001000000000000000000000000001000001111111111011000
0000000000101011000000000000010111111111111100010000000000011110000000000010101100000000010100110000000000010000111111111111011100000000010100000000000000011000111111111110101000000000000100010000000000101011000000000001111011111111111110101111111110111110111111111110100111111111111010100000000000100101000000000011000111111111110100000000000000010110000000000000011000000000001000010000000000001101
1111111111100111111111111111111100000000000100010000000000011100111111111110000000000000000010011111111111110011111111111100111011111111111101110000000000001110000000000010100000000000000111111111111111110101111111111101001100000000001001010000000000100011000000000000111011111111111011100000000000001100000000000001110011111111111010011111111111110110111111111110000011111111110101111111111110111011
1111111111010011111111111100011111111111111011000000000000101100111111111110011000000000000110010000000000011110111111111111100100000000000110111111111111010110000000000010001000000000010011001111111111110011000000000001011011111111110100100000000001010110000000000001110111111111111010011111111111101100111111111100100000000000001011100000000000011000000000000001101000000000000001111111111111100000
1111111111010110111111111110111011111111100111010000000000011110000000000010011100000000000100010000000000011100000000000000001000000000000010110000000001011011111111111101110111111111111011111111111111011111111111111101001111111111110000111111111111001000111111111111011011111111111001001111111110110010111111111101101111111111110001110000000000000111111111111111001111111111110100111111111111011001
0000000000010010111111111101001011111111111011000000000000000110000000000001001000000000000000101111111111100111000000000000100100000000000000111111111111110011111111111111100011111111111000000000000000010110111111111111111100000000001111101111111111011000000000000000001011111111110111011111111111101111111111111110110111111111111011110000000001000011000000000000000011111111111011010000000000010111
1111111111111111111111111110001011111111100111001111111110110101111111111100101000000000000101001111111111010111111111111100100111111111111010110000000000111110111111111111110100000000000010110000000000001001111111111010111111111111110011000000000000001001111111111110101111111111110110011111111111110111000000000000011111111111101011011111111111100010000000000000101000000000000010000000000000100110
1111111111110001111111111110011111111111111100100000000000001101000000000011100100000000000011010000000000100001000000000010101100000000000010000000000000011100000000000010110100000000000110101111111111101110000000000100100100000000011011000000000000110110000000000010001111111111111011010000000000011100000000000011000000000000000010011111111111111101111111111110011111111111111110100000000000100001
0000000000110100000000000011111000000000000100011111111111100110111111111110100100000000000011110000000000100110000000000000110000000000000001111111111111001000111111111110101111111111111111101111111111110000111111111101101011111111101101000000000000111100111111111111010100000000000010000000000001010001111111111110011100000000000101100000000000101010000000000000100000000000000000101111111111100011