1111111110111111111111111101110011111111111111111111111111110011000000000010001011111111111111111111111111111011111111111110001011111111110111010000000000011101000000000000111100000000001000001111111111000111111111111101100111111111111110011111111111000101111111111111001000000000001010010000000000110011000000000010011011111111110111111111111111110111000000000011001100000000001010111111111111101111
1111111111010010111111111110010011111111111110101111111111010110111111111100010111111111101010111111111111000101111111111101110100000000000001011111111111100011111111111100000111111111101101001111111111111001000000000011000100000000010010001111111111011001111111111100111011111111111010010000000000010011000000000001101011111111110110111111111111010111111111111110111000000000000011000000000000010001
1111111111100101111111111111110100000000000001111111111111110001111111111111110011111111110000010000000000000111111111111011111111111111110100110000000000111110111111111100100100000000000010111111111111101101000000000000011000000000001011110000000000001101000000000000000011111111110001111111111111100110000000000001110000000000000001011111111111011000111111111101001100000000000011001111111111110001
1111111111110101000000000000011111111111111101100000000000011101000000000010000111111111111000110000000000100011000000000000000000000000001110110000000001000101000000000000101011111111111010111111111111000010000000000011110100000000001001100000000000011001111111111100010000000000000110001111111111110110000000000000000011111111110101101111111111100000000000000001011000000000010000000000000000010011
0000000000101000000000000010001111111111110100111111111111100001111111111111101100000000000111010000000000000000111111111110011000000000000011110000000000111110000000000000110111111111101111011111111111111011111111111110111000000000000010000000000000000110000000000001101111111111110111010000000000010101111111111111100100000000000001110000000000100010111111111101001000000000001010100000000000100001
1111111111101000111111111111111011111111110111101111111111111110000000000010001011111111110010010000000000011100000000000001000011111111110001100000000000101011000000000001010100000000010101010000000000101110111111111100000011111111110001110000000000101001000000000000011100000000000011001111111111001101111111111101000100000000000111011111111111011000000000000001010111111111111010101111111111100010
1111111111100011000000000000110000000000000010110000000000000011111111111110000011111111101110101111111111011110111111111010001011111111100000110000000000100001111111111100101111111111111101101111111111111101000000000011101111111111111000110000000000000101111111111111111011111111111001100000000001100011000000000100100011111111110110010000000000011000111111111111110000000000000000000000000000001110
1111111111100000111111111111110000000000000100001111111111010010111111111111100011111111111011001111111111100010000000000000001111111111111101001111111111101010000000000000000000000000000100101111111111101000111111111111101100000000010100010000000000011001111111111010101100000000000011110000000000000000000000000000011111111111111101111111111111011011000000000000011100000000001010000000000000000000
1111111111001010111111111110011100000000000011000000000000100111111111111110110111111111111100011111111111101111000000000010111011111111110110000000000000000110111111111101110100000000000010010000000000010011000000000010111100000000000111001111111111111110000000000011100000000000000010011111111111111011000000000011100000000000001100011111111111111100000000000010010111111111111100101111111111110100
1111111111000000111111111001110000000000000001011111111111101100000000000000010111111111100100011111111110011111111111111111110111111111101000101111111111100010000000000001011000000000001101100000000001000111000000000001110111111111101010110000000000010010000000000010001011111111111011100000000000010010111111111111111100000000000011100000000000000111111111111111000011111111111011001111111111000000
1111111111000011111111111110011111111111111100101111111111110100111111111011111111111111111011100000000000001010111111111101100000000000000000011111111111111001111111111111001111111111111101011111111111100010000000000001100111111111111101101111111111110110111111111100100000000000001011010000000000010010000000000001110011111111111110100000000000001011000000000011001100000000000011010000000000010011
1111111111111010111111111111011011111111111011001111111111011110111111111111100111111111111010100000000000011101111111111110100011111111111111001111111111101100000000000011100111111111111010111111111111111100000000000010011000000000010101100000000000101100000000000001101100000000000100111111111111000110111111111011100100000000000111100000000000010001111111111100001000000000000010010000000000001111
0000000000001011111111111111110111111111101011000000000000000001111111111111101011111111110111001111111110111010111111111100011100000000000100001111111111110000111111111110100100000000010111101111111111110111000000000000101011111111101100110000000001010110000000000101011111111111111000110000000000000110111111111111100100000000000110010000000000011100111111111011110111111111101101111111111111101010
1111111111000011111111111010101011111111111100011111111111011101000000000001100000000000001010000000000001011101000000000011010111111111110010001111111110010011000000000011110100000000010111000000000000001010111111111110010011111111111000010000000000001110111111111101000011111111111101001111111111100100111111111011110100000000000011111111111111111110111111111101010111111111110010111111111111010100
1111111111011100111111111111110100000000000110110000000000011000000000000000111011111111101001001111111111000101111111111011100011111111101100010000000000001101000000000010100100000000001011100000000000000010000000000001111000000000001001011111111111101111000000000000011111111111111101110000000000101101000000000001011100000000000001010000000000000100000000000000000011111111111101011111111111100100
1111111111100001000000000001101100000000000110111111111111110100111111111111111111111111110010101111111111100110111111111101011011111111110101001111111111100110111111111011001111111111111010111111111111000110111111111101100011111111101011100000000000010100000000000000011011111111101100111111111110011000111111111101101000000000000001011111111110111000111111111100000011111111101000101111111111101100