1111111111101011000000000001011100000000000100000000000000100110000000000100001111111111111100110000000000000110111111111100001100000000000011010000000000100011111111111110011100000000001001011111111111110011111111111001000011111111110010111111111111111100000000000010111000000000001000011111111111101110111111111111010011111111111000100000000000010101000000000000111011111111110111011111111111110100
0000000000000101000000000000100111111111110101100000000000011110000000000011011011111111111011000000000000010011111111111011100011111111100110000000000000010111111111111100111000000000010010010000000000110000111111111101011011111111111110101111111111011110000000000010111000000000000110011111111111111001111111111101001011111111111000000000000000011011000000000000111011111111110111111111111110111000
1111111111011001000000000011101100000000001001001111111111110111111111111110101011111111110100110000000000100110000000000001110111111111110000011111111111001101111111111100101100000000000100100000000000010110111111111101011111111111100100011111111111000101000000000001011000000000001001101111111111101111111111111101000111111111110011110000000000111100000000000010011100000000000011001111111110110110
0000000000100101000000000010101000000000001111110000000000000111000000000000110011111111111111111111111111010010111111111001101111111111011000011111111110011111000000000001101011111111111110001111111101100111111111111011000011111111111100100000000000001100000000000010101111111111110010001111111111011001111111111111100100000000000001110000000000100111111111111111001111111111111000001111111111011000
1111111110000001111111111101101111111111110000001111111110100111111111111101000111111111101000101111111111111110000000000001111011111111110101111111111110111010111111111100110011111111111010110000000000111100111111111111001011111111110010011111111111001010000000000000000100000000010001010000000000110101111111111110111111111111100110110000000000000101000000000011001100000000000010110000000000010011
1111111111100111111111111111010111111111111011101111111111010101000000000010011011111111101100111111111111101000111111111111101111111111110101011111111111101110111111111101000011111111110101001111111111101000000000000000011100000000000100001111111111001101111111111011110111111111110110001111111111011011111111111110111111111111110100001111111111100000111111111101101100000000000011110000000000110100