1111111111100100000000000000001000000000010100110000000000000101111111111110000111111111111010001111111111110011111111111111011100000000000001110000000000000101000000000000101011111111111000011111111111100001111111111110000111111111111101100000000000010010111111111110001100000000010000111111111111000100000000000010001011111111110000101111111111000111000000000011110000000000011011000000000000011011
0000000000110010111111111111100111111111111101100000000000001110111111111110010011111111111000111111111111100011111111111110010000000000000001011111111111111011000000000001111011111111110100011111111111101100111111111101100111111111111100100000000000110100111111111111011111111111110110110000000000000111000000000000110011111111110100111111111110111010111111111100110011111111101110111111111110110001
0000000000000111000000000010000111111111111111111111111111111101111111111111001011111111111010010000000000010000111111111100011011111111110100111111111111011000111111111011001100000000000001011111111111111000000000000001101100000000001000111111111110111010000000000000110111111111110110110000000001001010111111111101010100000000001100111111111111111010111111111101010011111111110101001111111111010101
1111111111110110000000000001101111111111111001101111111111101000000000000010001011111111111111010000000000110001111111111111011111111111110111001111111111011101000000000110110011111111111111100000000000000101000000000010100100000000001101111111111111110010111111111110010111111111110101010000000000000010111111111111100011111111111010010000000000110100000000000000011100000000000001000000000000000010
0000000000000010000000000000111111111111111001010000000000011101000000000010001100000000001001101111111111011010000000000001000100000000010011011111111111111110000000000001100100000000000001000000000000001110000000000101101111111111111100011111111111101010000000000000000011111111111011011111111111110000111111111110000011111111111010011111111111111100111111111111111100000000001101110000000000011100
0000000000100001000000000010010100000000000101000000000000011110111111111111010011111111101111011111111111110000000000000011001100000000000000010000000000101101111111111111110100000000000010100000000000010001111111111111111011111111110101010000000000001100000000000001000011111111111001101111111111100101000000000001100011111111111101011111111110000100000000000000111000000000000101010000000000110010
1111111111001010111111111110101111111111111000011111111111111110111111111011100011111111110100111111111111111100000000000000101000000000000011011111111111010011000000000001001011111111111100010000000000000110000000000100110011111111111110000000000000111101000000000000011100000000000110111111111111100001000000000010101000000000010110100000000001001111000000000010001100000000000101000000000000001111
0000000000010101111111111111111111111111111100101111111111110110111111111110000011111111111100000000000000000110000000000001110111111111111100001111111111011111111111111110101100000000001010000000000000100100000000000000010111111111111010110000000000001100111111111111000000000000001000010000000000000101111111111110000011111111110111111111111111000001111111111110101111111111101100010000000000001101
1111111111110110000000000000001111111111111110111111111111111100111111111110100000000000001010111111111111111000000000000001001111111111110011111111111110111011111111111101110100000000000010100000000000011000000000000001110100000000000011001111111110011010000000000000011111111111110111111111111111101110000000000000000100000000000000110000000000001110111111111110101111111111101001111111111110010001
0000000000001110111111111100101100000000000001100000000000000001111111111101001111111111110110101111111110110100111111111111110011111111111111011111111111011111000000000001111100000000001001110000000001001001111111111111110111111111101100000000000000100010000000000000110000000000000001001111111111011001111111111101100111111111111111101111111110111110111111111111000011111111111010101111111111110100
1111111111011101111111111111011000000000000101010000000000110011111111111010110111111111111001000000000000001111111111111111001000000000000000101111111111100011000000000010010100000000000100100000000000011110111111111110011011111111111110111111111111101000111111111110010000000000000000000000000000001000000000000011010011111111110011010000000000100111000000000101000000000000001000000000000001011101
0000000000001100111111111111001011111111111100010000000000011000000000000100011100000000010000101111111111110100111111111111000011111111110111111111111111100000000000000010010111111111111101100000000000100111000000000100001100000000001000011111111111000010111111111101010111111111111001010000000000100000111111111101100000000000001011011111111111011001111111111110001011111111111110110000000000011010
0000000000110010000000000000010011111111101111011111111111100110111111111101111011111111111011001111111111100001000000000010000000000000000111011111111111100010111111111010001100000000000100000000000000001111111111111111000111111111100001000000000000101000000000000110001111111111111110011111111111111010000000000011001100000000000100110000000001100100000000000001010100000000001001111111111111000101
1111111111110111111111111110010000000000000101000000000001000110111111111110110111111111111000100000000000001011111111111111011000000000000010001111111111001111000000000001110000000000010001010000000000111011000000000000010000000000000000010000000000000011111111111111110000000000000100111111111111111100000000000000111011111111111100111111111110010011111111111011000011111111110010010000000000000000
1111111111110011111111111110001011111111111100101111111111100101111111111100101011111111101110101111111111011110000000000000111000000000000110101111111111001001000000000110001000000000000010110000000000000000000000000000010111111111110010110000000000001000000000000010001000000000000110000000000000100001111111111110010100000000000111010000000000011010000000000001100111111111111101001111111111111101
1111111111100111000000000001010000000000000101110000000000011000000000000001011100000000000011101111111111111010111111111101011100000000000000111111111111111110111111111011001000000000000000101111111111101111111111111111101100000000000001101111111111100001111111111111000011111111111010101111111110110011111111111101101000000000010100001111111111111110111111111011101111111111100101011111111111010000