1111111110100011111111111001001011111111100110111111111101111111111111111000010000000000000000001111111111111110111111111100110011111111111100110000000000000111000000000011110100000000001100010000000000111100000000000011101000000000000111100000000000001110000000000010000000000000001001001111111111110110111111111100111011111111111011111111111110111100111111111010011011111111110010001111111111110010
1111111111100010111111111011111111111111110100001111111111011101111111111110001100000000001100110000000000001111000000000001101000000000001010010000000000110001000000000001001100000000000110010000000000010110000000000000101100000000000001111111111111011001111111111001010011111111100011001111111111010001111111111110110100000000000101011111111111111010111111111111110100000000000001011111111111100111
0000000000101100000000000000011111111111111111010000000000010001111111111110110011111111111111101111111111011010000000000000110111111111111110010000000000000001000000000000010000000000000100010000000000010010000000000001101000000000001000000000000000000110000000000000101111111111110111111111111111001100111111111101100011111111111100111111111111010100111111111111010100000000000011110000000000100101
0000000000100100111111111111110100000000000100111111111111111100111111111101010011111111111110101111111111111111000000000000001100000000000010000000000000110001000000000001001100000000000101010000000000100011000000000001101100000000000100010000000000000011111111111111001011111111111001001111111111010111111111111101001111111111110001011111111110110011111111111111100000000000000000100000000000011000
0000000000110011000000000101010000000000000110000000000000010011111111111111100011111111101101001111111111011101111111111101101011111111111010110000000000000010111111111001001011111111110000101111111110111001111111111101001000000000000011001111111111100011111111111111010011111111110101001111111110110110111111111111010000000000000010100000000000110100111111111111011100000000001000000000000000001100
0000000000001101111111111101010011111111111101010000000000000110000000000010011000000000000101110000000000001101000000000010001100000000000011000000000000011000111111111100001111111111110110011111111111000101111111111011111011111111100110110000000000000100111111111110010111111111101100011111111111000010111111111101100000000000000011100000000000111010000000000011111100000000001001000000000000010011