1111111111111100000000000001111000000000000110001111111111100000000000000001010100000000011000100000000000010010000000000010001000000000000100110000000000111010111111111110100011111111111001111111111111101101111111111110111100000000000101001111111111000111111111111100011100000000000011010000000000000101000000000001111100000000000100011111111111110000000000000000010100000000000111110000000001001000
1111111110000111111111111010011000000000000010100000000000110000000000000001001011111111101010001111111111110101111111111101000011111111111000010000000000000000111111111110010000000000000100100000000000001101111111111111001111111111111101000000000000000100000000000010000100000000001010100000000000010001111111111101011000000000010010100000000000101000111111111110111011111111101111111111111110100100
0000000000011000111111111111100100000000000101000000000000010011000000000010001000000000001000110000000000100111111111111111100100000000000011011111111111100010000000000011011111111111110111111111111111011110000000000010111100000000001000000000000001011100000000000000010011111111111001100000000000001100111111111101110000000000000100110000000000011000111111111110100111111111110011001111111111011011
0000000000001011111111111111100011111111111101010000000000101100000000000001000100000000000110110000000000000100000000000010011111111111101100101111111111100000000000000001010100000000000010001111111111010011111111111101100111111111111010110000000000000101111111111110110011111111110100000000000000000011111111111011110100000000000100010000000000010011000000000001100111111111110111011111111101111000
1111111111111010000000000011010100000000001110111111111111110110111111111110001000000000000110010000000000010101000000000000101000000000001011111111111111111001000000000000010111111111110010001111111111111001000000000000100100000000000110101111111111000010111111111010011011111111110111001111111111110011111111111110000011111111110101001111111111011001111111111101001100000000001000101111111111110010
0000000000001101000000000010101011111111111101110000000000000000111111111110110100000000001011100000000000010000000000000000110000000000000110011111111111111011000000000000101100000000000000101111111111001001000000000000100011111111111111100000000000101001000000000011101011111111100111100000000000000100000000000011110100000000000001111111111111101000111111111101100000000000010110100000000001101111
0000000000111101000000000100100000000000001010010000000001010010000000000001000111111111010110001111111110101011111111111110111111111111111100010000000000000110111111111100110111111111111001011111111111111110111111111110001000000000001010100000000000001110000000000011001000000000010000011111111110111100000000000001010100000000000010110000000001010011000000000011001111111111111011111111111111111011
0000000000000000000000000000101111111111110111101111111110111000111111111101110011111111110101101111111111011100000000000000110111111111111101011111111111110111111111111110000000000000000011010000000000001000000000000000101100000000000110100000000000100101000000000010001111111111111100101111111111110111000000000100011100000000010111100000000000000001111111111111001111111111111011010000000000110011
1111111111000110000000000000010111111111111110001111111111101110111111111111110100000000001001110000000001011111000000000100101011111111110111111111111111001110000000000110001100000000000001110000000000000110111111111110110011111111111101100000000001001100000000000011011100000000001000001111111111110110111111111111111111111111111110000000000000011011111111111111110111111111111011111111111111110001
1111111110011101111111111100000011111111110010010000000001010101000000000010011011111111100111011111111111011100111111111111110111111111110011000000000000000111111111111111100000000000000100000000000000101111111111111110111100000000000101100000000000101111000000000100100100000000001101011111111110101000000000000000001100000000000111111111111111101101111111111011111111111111110110110000000000111110
0000000000000010000000000000100000000000000010110000000000011011000000000010010100000000000110010000000000100101000000000001000011111111111110001111111111110100000000000000011100000000000000100000000000101100000000000000101100000000000100101111111111111011000000000000001111111111111101100000000001001111000000000010010100000000000110001111111111011111000000000010101000000000010011110000000000011100
0000000000001011111111111111000100000000000100110000000000011010000000000011011000000000000101010000000000001111000000000010001011111111111110001111111111100100000000000010011000000000000001101111111111101010111111111110010111111111111111010000000000000101000000000000111111111111101110111111111111101000111111111110110011111111111110001111111110111100000000000000111100000000001000111111111111111000
0000000000010010111111111101010011111111111001001111111110111100111111110111110011111111111010011111111110111100111111111011000011111111111010111111111110000010111111111011110011111111110100000000000000100010000000000000000111111111011010001111111111011110000000000000011100000000001100101111111111110011000000000011001111111111111111010000000001001100000000000001001100000000001101100000000000111100
1111111110101000111111111011010100000000000011011111111111100100111111111011100100000000000111000000000000100110000000000001100000000000000100000000000000000111000000000001011100000000001011111111111111110011000000000000001011111111111100010000000000011011000000000001001011111111110011111111111111101010000000000110010111111111111101011111111111010101111111111011101100000000001011110000000010111011
1111111111011000111111111010110100000000000010000000000000010011000000000001110111111111011101001111111111011101000000000000001011111111110111001111111111011010000000000011000000000000010010010000000000100101111111111111101011111111111110100000000000100100000000000001011000000000000001101111111111110100111111111111010100000000000010110000000000010000111111111111000111111111110110101111111111101110
1111111111011101000000000001111100000000000010111111111111011101111111111111011011111111111111011111111110110000111111111101010111111111111010011111111111111110111111111101010100000000000010101111111111000001000000000000100100000000000011110000000000101111000000000100101100000000001100111111111111001100111111111001000000000000001011110000000001001111000000000011101111111111111100101111111111000011