1111111110110010111111111100011011111111100111101111111111010000111111111111100000000000000010011111111111111010000000000001010111111111111001101111111111110110000000000000100011111111110010000000000000000101000000000001010000000000000000111111111111010011111111111111111000000000000010010000000000111000000000000001111100000000001010010000000000010111111111111110101111111111111011100000000000100000
1111111111010110000000000010001111111111110111110000000000000000111111111111111011111111111111001111111111110010111111111101111100000000000001111111111111100100111111111111010011111111111101110000000000011101000000000010011011111111111100111111111111111011000000000001011100000000000001111111111110111011111111111010100111111111101100011111111111101001111111111111111100000000000100101111111111111101
0000000000010100000000000010001111111111111111011111111111100000111111111110001011111111111000011111111111100000000000000010000100000000000011010000000000100100111111111101010111111111111111110000000000010110111111111110011100000000000111000000000000100111000000000000111100000000000010111111111111100100111111111111110011111111111001011111111111001010000000000000011000000000001100000000000001001110
0000000000101011000000000010111111111111110001111111111111110000111111111110101000000000000010101111111110101011111111111001101100000000010011010000000000011000111111111010000011111111110101000000000000101000000000000011001100000000000001000000000000010010000000000010110000000000000110010000000000000100111111111110010011111111111100001111111111010101000000000010011000000000010111100000000000110010
0000000000111010111111111111110111111111110010111111111110100010111111111000111011111111111000001111111111001111111111111011101111111111111010001111111111111110111111111111011000000000000010111111111110111011111111111011000100000000000100110000000000001000000000000001010000000000001110100000000000000010111111111111000011111111111100110000000000011001000000000001000111111111111110110000000000010011
1111111111110011111111111110000011111111111101011111111111011001111111111100111000000000000100111111111111111110000000000100011111111111110110111111111111110100000000000110110111111111111100010000000001000101000000000000010100000000000100011111111110010111000000000000010100000000000110010000000001000101000000000010010011111111111111110000000000100000111111111100110000000000000110000000000000011011
0000000000100011000000000000001011111111111110011111111111101000000000000001110011111111111110001111111111001110111111111100011011111111110001110000000000100000111111111101001100000000001010001111111111010100111111111101011011111111101011100000000001000110000000000010110111111111101011110000000000001010111111111100110111111111101000100000000000101010111111111111110111111111111100011111111111101011
0000000000011001000000000010110111111111111111001111111110100111111111111010011011111111111101111111111111011101111111111100000100000000010100001111111111100011111111111101010111111111111001110000000000000010111111111110101111111111110100000000000000010110111111111111111100000000000111110000000000110100111111111010110100000000011010110000000000111001111111111101111000000000001010011111111111110101
1111111110101111000000000011110000000000001000100000000000000100111111111111001011111111101111010000000000110011111111111101100011111111110100100000000000011111111111111110111111111111111001101111111111101100111111111110001111111111111100101111111111111010111111111110100111111111111111011111111111101000111111111101101011111111110110110000000000001110111111111111001100000000001110000000000000010100
0000000000000111111111111110111011111111110110011111111111101010000000000010000111111111111110100000000000110100000000000101001011111111101100110000000000011011000000000100011000000000010110010000000000001110000000000000001111111111111100011111111111100011111111111111110011111111110011101111111111111110111111111011000011111111111111010000000000010011000000000010001000000000000000101111111111001101
0000000000001011111111111110101011111111110011111111111111011111111111111111111000000000000111011111111110010001111111111101111000000000000011000000000000100101111111111011101111111111100010100000000000011010000000000010101011111111110011001111111111010000000000000010100000000000000010101111111111100101111111111101110000000000000101101111111111111001111111111101100000000000000001110000000000010100
0000000000110011000000000011011000000000000100011111111111001101111111111111011100000000010101110000000000100110111111111110110000000000000100101111111101110110111111111111000011111111110100001111111111010110000000000000111000000000010010000000000000011010000000000001001011111111111011111111111110101000111111111100110100000000001110001111111111101011111111111110011011111111111101000000000000111100
1111111110001010111111111001101011111111101100001111111111100111111111111100010011111111110000111111111111100100111111111110001111111111111100101111111111011101000000000011000100000000010101100000000000001010111111111111101111111111111111110000000001001001000000000001111011111111111101100000000000101100000000000010001111111111111010011111111110101000111111111010111100000000000010101111111111010001
0000000000011101000000000011101000000000000111111111111111111010111111111110000000000000010110010000000001101110000000000010100111111111111100111111111111010011000000000010011111111111110101000000000000011000000000000000111100000000001111001111111111000010111111111110011100000000000011011111111111100010111111111110010000000000000110110000000000010011000000000001000000000000000001011111111111110001
0000000000001011000000000011100000000000000101101111111111110000111111111111100100000000000000111111111111110111111111111100000111111111111000010000000000011000000000000011111000000000010011110000000000010111111111111111101011111111101110110000000000000110000000000000011111111111110110110000000000011000111111111110001100000000000001100000000000010000000000000000110100000000001111101111111111111011
0000000000000001000000000001011000000000000001100000000000001101000000000000111111111111101001011111111110101100111111111111000111111111111100100000000000000101000000000000000111111111111100111111111111010110111111111111001011111111111001010000000000011010000000000100000111111111111101100000000000000011000000000001111111111111101110111111111111011000000000000000001000000000000010000000000000010001