0000000000011010111111111111101011111111100101000000000000000000111111111111110000000000001000011111111111011110111111111010111111111111111010101111111111111100111111111110000111111111111101011111111111101011111111111100010100000000000000110000000000100100111111111110101011111111111010110000000000101000000000000011010100000000010001110000000000101011000000000001111100000000000000010000000000110010
0000000000011100000000000001101111111111111010110000000000101100000000000010000111111111111111000000000000010110000000000001011011111111111011101111111110100111111111111101101111111111101101101111111110110010111111111101010100000000000101001111111111001110111111111110000100000000000110110000000000110011000000000000110011111111111001110000000000011110000000000000100111111111110101101111111111100100
0000000000011011000000000001001100000000000001000000000000000001111111111001001000000000000011110000000000010000111111111111101000000000001011101111111111011101000000000001111111111111111110000000000000000100000000000100000100000000001011111111111111101100111111111111011000000000000011101111111111101100111111111111010111111111010101111111111111000101111111111101101100000000001010000000000000010001
0000000000110011000000000010001000000000001101001111111111111110111111110110011000000000010010110000000000010010000000000101100011111111111000111111111111000100111111111111001011111111110111010000000000011000000000000011001000000000001000001111111111101010111111111101000100000000000001000000000000101000000000000010010111111111101101011111111111000011111111111101001011111111110111100000000000001011
0000000000110001000000000000001111111111111100011111111111001011111111111011100000000000001101000000000000011110111111111101000011111111110111101111111110110101000000000001010100000000000010101111111111101011111111111100001111111111111110001111111111110010000000000000101011111111101000011111111111010100000000000010000111111111110101011111111110000000111111111010010011111111110101000000000000000000
1111111110111011111111111110110000000000000001110000000000001001000000000001001011111111110010011111111111101101111111111111110100000000001111010000000000000111000000000000101100000000000110011111111110100000000000000000111000000000001100111111111111111000000000000010101100000000000011110000000000100101000000000001010111111111111111100000000000000010000000000001100100000000000001010000000000010010
1111111111111010000000000010010100000000000011111111111111101011000000000000011011111111111100111111111111111010000000000101001000000000001101101111111111111000111111111110101011111111111011110000000000011101111111111101010111111111111001110000000000101100000000000010111000000000000101110000000000100110111111110111101111111111111010101111111111001111111111111110101011111111111010001111111110110101
0000000000010100000000000010100100000000001110010000000000010110111111111110110011111111111010100000000000000000000000000001000000000000001001110000000000101110111111111101011111111111111000101111111111111001111111111111111011111111111011101111111111001000111111111010101011111111111011111111111111111110000000000001001000000000000101111111111111100100000000000100010011111111111111101111111111001110
1111111111010000000000000000100111111111111110100000000000000000111111111110000111111111111011101111111111111000000000000011101100000000010100000000000000111110000000000010011100000000000111110000000000101111000000000000110000000000001010010000000000101111000000000000001100000000000010001111111110111011111111111011110111111111110100001111111111101010111111111111111111111111111101000000000000110110
1111111111000001000000000001000100000000000101000000000000100001000000000010110111111111110010101111111111110000111111111111011111111111111110010000000000000011111111111001100011111111110000111111111111110110111111111111001000000000000111111111111111110000000000000000011100000000000101111111111111110001000000000000101111111111111001000000000000011001000000000001100100000000000010110000000000000001
0000000000111001000000000101100111111111110001101111111110110000111111111010011100000000001010110000000000011100111111111111011111111111110101101111111111011000000000000011010111111111111011101111111111011110111111111101110100000000000010010000000000000110111111111110100100000000001001001111111111000110000000000000000111111111110011101111111111101101111111111110111011111111110010000000000000000011
1111111111111100111111111111001000000000001010011111111111001101111111111011101111111111111001110000000000101011111111111111011100000000000001011111111111110001000000000000010100000000001001010000000000001001000000000000001000000000001101011111111111111000111111111110111100000000000101110000000000011110000000000001110011111111101101111111111111001101111111111010101011111111101111010000000000010110
0000000000100111111111111110010011111111110101111111111111100100111111111100110000000000000000110000000000000111000000000001100000000000000000100000000000101001111111111111101011111111111100111111111111011100111111111101111100000000000001000000000000101000111111111101010011111111110000101111111111000000000000000000001100000000000100000000000000000011111111111101111100000000001000110000000000000000
1111111111100110000000000000011000000000000001000000000000010110000000000010110111111111111011011111111111001110111111111100011111111111111100111111111111100110000000000010001111111111111111111111111110101001000000000001111100000000000101100000000000011010000000000010010000000000001101100000000000011110000000000001110000000000001001010000000000011100000000000010010100000000000101000000000000100011
0000000000001000111111111111101000000000000010111111111111110101000000000010111011111111111110000000000000011101000000000100111000000000000110101111111111111001111111111001110111111111101000010000000000010100111111111111101011111111111100111111111111101101111111111111000011111111111101010000000000000010111111111101000011111111111100110000000000011100000000000000111000000000000001001111111111010110
1111111111110000000000000000010000000000000001100000000000001001111111111110010111111111111110011111111111110000000000000100101100000000010101100000000001101011000000000001000000000000000001110000000000001111111111111111010000000000001101001111111110011000111111111101000111111111111010000000000000001110000000000000110111111111101110001111111110101101111111111110010100000000001010010000000001110100