0000000000000110000000000000100100000000000000011111111111101111111111111111110100000000000000000000000000001010111111111111101111111111111010111111111111111101111111111111101011111111111111001111111111111000111111111111011011111111111111011111111111111010000000000000000111111111111110111111111111100000000000000000010111111111111111101111111111111111111111111101011111111111111101011111111111110110
1111111111111011000000000000111011111111111001110000000000000101111111111111100111111111111010001111111111111000111111111111011000000000000000001111111111110110111111111111011011111111111010011111111111100101111111111110100111111111111100011111111111101010111111111111011111111111111010100000000000000011000000000000001111111111111100011111111111110000111111111110100111111111111111011111111111110100
0000000000000000111111111111101111111111111100111111111111110111000000000001011100000000000010010000000000000100000000000000001100000000000101011111111111110101111111111110111011111111111110101111111111100111111111111111000000000000000010101111111111110001111111111110101000000000000000000000000000000001111111111111010011111111111001111111111111110111000000000000001100000000000010101111111111101100
0000000000000010000000000000001011111111111111111111111111110000000000000000001011111111111111101111111111100011111111111111001100000000000010001111111111110101111111111111110000000000000101100000000000000000000000000000101100000000000001101111111111111100000000000000101000000000000011010000000000000001111111111111101111111111111110010000000000000000111111111111100111111111111011011111111111110000
1111111111100110111111111110110000000000000010100000000000000100111111111111010111111111111100101111111111110110111111111111110111111111111100001111111111111101111111111111101011111111111001100000000000001010111111111111100111111111111010111111111111110000111111111111001100000000000000111111111111110101111111111111110011111111111110111111111111110101000000000001101011111111111101101111111111101110
1111111111110011111111111111101111111111111111101111111111110011111111111111100000000000000011000000000000010010111111111110110011111111111110101111111111101101111111111111110111111111111001111111111111101100111111111111111000000000000001000000000000010011111111111111110111111111111111000000000000001010111111111111100100000000000000100000000000000100111111111111011011111111111101100000000000000100
1111111111110111111111111111011011111111111101101111111111101101111111111111011011111111111101001111111111110101111111111111111000000000000010000000000000000110111111111110110000000000000000001111111111101000111111111111000111111111111111001111111111111001111111111111000011111111111101100000000000000000111111111111101011111111111100001111111111110000000000000000000011111111111111001111111111110110
1111111111111010111111111111100100000000000001100000000000000110000000000000101100000000000101001111111111101101111111111110110011111111111111100000000000000001111111111110011111111111111001001111111111100101000000000000000111111111111100011111111111111110111111111110110011111111111101101111111111111100111111111111110011111111111011110000000000000011000000000000011111111111111101001111111111111111
0000000000000000111111111111101011111111111001010000000000000000111111111111100111111111111100100000000000001001000000000000110000000000000001010000000000001010000000000000100011111111111010001111111111111001000000000000011000000000000001100000000000000000111111111111000011111111111010101111111111110110111111111110110111111111111010111111111111101111000000000000000000000000000000000000000000000110
0000000000000101111111111111011111111111111101011111111111111001111111111111011111111111111011101111111111101111000000000000010100000000000010011111111111111001111111111110101111111111111111101111111111110000111111111110110000000000000010001111111111100101111111111111100111111111111111111111111111111111000000000000011000000000000000011111111111111001000000000000001011111111111011111111111111101100
1111111111111010000000000000101100000000000011010000000000000100111111111111001111111111111110101111111111110010111111111111001011111111111101010000000000000011111111111111010011111111111110111111111111111101000000000000101011111111111011101111111111111011111111111111010011111111111101001111111111111110111111111111101100000000000011011111111111111111111111111110111111111111111011111111111111110010
0000000000000101111111111110110011111111111101011111111111101110000000000000011011111111111111011111111111101111111111111111110000000000000001100000000000001001111111111111001000000000000011101111111111110000000000000000000111111111111011001111111111111101111111111110111011111111111110011111111111110110111111111111100100000000000010110000000000001101111111111111010011111111111010100000000000001001
1111111111111100111111111111101100000000000001100000000000000000111111111111010000000000000000100000000000010001111111111111110111111111111011110000000000000101111111111111100111111111111000001111111111111010111111111110111000000000000010001111111111111111111111111110101011111111111110110000000000000010000000000000011011111111111110001111111111011111111111111111011111111111111101101111111111111000
1111111111110110111111111110101111111111111100011111111111110011111111111111001111111111111010001111111111110001111111111111000000000000000011101111111111101011111111111110101011111111111001011111111111101011000000000000001111111111111100100000000000000001111111111111011011111111111011001111111111110100000000000000100000000000000001000000000000000000111111111111001111111111111010110000000000000000
0000000000000100111111111111000111111111111000001111111111111011111111111111100111111111111011101111111111111000111111111111101111111111111110000000000000001101111111111110100011111111111001101111111111101111111111111111101011111111111100111111111111101001111111111111010011111111111011111111111111110011111111111110100111111111111110111111111111111101111111111110111011111111111100101111111111110100
1111111111110101111111111111000011111111111100111111111111110011111111111111101011111111111011010000000000010001111111111111101111111111111011101111111111111000111111111111100011111111111001101111111111110011111111111111000011111111111101111111111111101110111111111111001111111111111101001111111111111101111111111111101111111111111110011111111111101110000000000000101100000000000000111111111111111011