1111111111000111111111111011000111111111110111001111111111000011111111111111100111111111111011100000000000110010000000000010001111111111110100010000000000011110000000000011010100000000010000100000000000010010000000000001010011111111111110011111111111110001111111111110001011111111111011110000000000000101000000000001101100000000000011010000000000001001000000000010000000000000011001011111111111111001
0000000000101111000000000001000111111111110111101111111111010111111111111101100011111111111100000000000000010011111111111101111100000000001000110000000000101011111111111011011111111111111011100000000000010001000000000010101111111111111100001111111111101010000000000010000000000000001010110000000000110010000000000000011011111111111110010000000000001001111111111110110011111111101000101111111111000100
0000000000101011000000000001001100000000000110000000000000010100111111111110110000000000010001100000000000011000111111111100010100000000001011001111111111011111000000000001011111111111101101000000000000001000000000000001011100000000010001000000000000011010000000000001011111111111111011100000000000100111111111111100111100000000000110001111111111101100111111111000001011111111011001011111111101010100
0000000000001000111111111110011111111111110011111111111111111111111111111110110111111111111111011111111111100111111111111110111100000000001101011111111111010010000000000000110111111111101111011111111111101100111111111101101111111111111001011111111110110110111111111110010100000000001000011111111111100011111111111111101100000000000001110000000000000000111111111110011111111111110101011111111110111010
1111111111111100000000000000110100000000000101001111111110110011111111111011010100000000000100000000000000100000000000000011000111111111101111000000000000000110000000000000011111111111110001001111111111111101111111111111101100000000000100001111111111111110111111111111100011111111111001110000000001000100000000000001001100000000000100100000000000110111111111111111100100000000010001111111111111101000
1111111111110110111111111110111011111111111101000000000000100011111111111110101011111111110000101111111111011110000000000010100100000000001000010000000000101000000000000001001100000000001011001111111111011000111111111110110111111111111110100000000000010110000000000001110011111111101011011111111111101001000000000010101011111111111110101111111111100110000000000000011000000000001100000000000001001001
1111111111011010111111111111101011111111111110011111111111100111111111111100000111111111110000001111111111011011111111111110101011111111110101110000000000011001111111111010111011111111110111001111111111100011000000000000111000000000000100010000000000011110000000000001111000000000001100001111111111000100000000000001010100000000000101010000000000110001000000000001001111111111110111111111111111000000
0000000000011001000000000000011111111111111000111111111111000010111111111011110111111111110010001111111111011001000000000000011000000000001001011111111111110111000000000001010000000000001010000000000000001010000000000100001000000000001110100000000000011010111111111101000011111111110010100000000000011101000000000010001111111111101011011111111110011100111111111000110011111111110111101111111110111001
0000000000000001000000000011010100000000000101010000000000011101000000000001111000000000010011110000000000100010111111111010011111111111111000011111111111101101000000000101011111111111110011110000000000000000000000000010000000000000010001100000000000000010000000000001011100000000000000011111111111000100111111111101011111111111111011011111111111001100111111111111011011111111011011011111111110000011
0000000000110000111111111101110011111111111000000000000000011101111111111110000011111111100010110000000000001011000000000100010000000000000001000000000000011011111111111110000100000000000010000000000000101010000000000000110111111111110000110000000000010101000000000000001000000000000100011111111101110010111111111110111000000000000101011111111111011110111111111011110111111111101111101111111111111001
1111111111100000111111111111100011111111110100001111111111101011111111111010101011111111110011011111111111110110111111111100100011111111111100011111111111100000111111111111100000000000000101111111111111100000000000000000000000000000000100011111111111110011111111111110000100000000000111000000000000010010000000000101010100000000000001010000000000011101000000000010011100000000000111000000000000111000
1111111111101101000000000001000000000000000110110000000000010000000000000010111100000000000011110000000000001100000000000000101111111111110101011111111110000100111111111111111000000000000001011111111111011100111111111101011111111111110100110000000000000100000000000011011111111111111100011111111111001000000000000001010000000000011010100000000000100001111111111111011011111111111000000000000000011000
1111111111100110111111111001111111111111110100001111111111100001111111111000011011111111111100011111111110110000000000000001000100000000000001111111111111000101111111111101001100000000001100010000000000110100000000000010111111111111101111010000000000001111000000000010100100000000001111100000000000011011000000000001000111111111111010011111111111111100000000000011110100000000000110011111111110110011
1111111111111011111111111111001111111111111001110000000000101100111111111101001100000000000011110000000000111100000000000011011100000000001110101111111111100001000000000000111000000000001010110000000000100000111111111100110111111111101110110000000000000100111111111101100111111111110100101111111111101010000000000000101111111111110111101111111111010000111111111101000100000000000111010000000001111010
1111111111111011111111111101111000000000000001100000000000010110000000000000000011111111111011100000000000010101111111111111101111111111111011101111111111111101111111111101110100000000000010100000000000011000111111111111010011111111101101100000000000010100000000000000101100000000001010000000000000001000111111111011100011111111110110101111111111011101111111111110001011111111110000011111111110110011
0000000000001011000000000000111000000000000111100000000000101110000000000001100111111111100110011111111110000000111111111100111100000000000101000000000000011001111111111011000111111111111101011111111111111010000000000011100000000000001110101111111111111001111111111111010011111111110111011111111111010100111111111011000011111111110111111111111111001001111111111010000011111111100110011111111101001011