0000000000111111000000000011101111111111111010010000000000010110111111111110011100000000001000110000000000010001000000000001101100000000001010010000000000111101111111111111110111111111111110000000000000101011000000000001000100000000001100100000000000000110111111111011001100000000000101101111111111111111111111111111100111111111110110100000000000011011000000000010100011111111111001010000000000001011
1111111101011101111111110011110111111111111000110000000000010101000000000010110000000000000110111111111111111001111111111010111111111111111101110000000000101000111111111110011000000000000110000000000000010111111111111111001011111111111010101111111111000100111111111011100111111111101101000000000000001001000000000000101011111111110111011111111111001111000000000000101100000000001110100000000000001010
1111111111000100111111111111000000000000000001011111111111111100111111111111111011111111111111011111111111110000000000000000101111111111111111110000000000010101000000000000001011111111110000011111111101101110111111111110011100000000001110101111111111010010111111111100111011111111110001110000000000010100111111111111110011111111110100110000000000001110000000000000110011111111110100011111111111101111
1111111111100001000000000010111100000000000100000000000000000110111111111101110000000000010110011111111111001110000000000010110011111111101101001111111110111010111111111111000100000000000110001111111110111111111111111001111011111111111100110000000000000010111111111110010111111111110000100000000000010010000000000100000011111111111111000000000000111011000000000000101111111111110101101111111111000101
1111111111001110000000000100010000000000010110110000000000001101000000000001000100000000001000000000000001001110111111111111111111111111110111111111111111000010000000000000000000000000000000101111111111111101000000000001100000000000000011111111111111001011111111111110001011111111111110011111111111110111000000000001111111111111111101011111111111000100000000000001001000000000001001100000000000110110
1111111111110101111111111110101000000000001111010000000000011010111111111110111000000000001010001111111111111110000000000001100100000000000001111111111111111000000000000011110011111111110111010000000000000000000000000000111000000000001110000000000001010101000000000011000011111111110110101111111111101010111111111101000100000000001000001111111111101110000000000001011111111111111111010000000000011010
1111111111110110111111111110010011111111101010100000000000011011000000000000010011111111110101001111111110001100000000000000010000000000010010100000000000100010000000000000100111111111101101110000000000001011111111111111101111111111111010001111111111100010111111111110101011111111111001111111111110110001111111111111000100000000000000110000000000010000111111111011100000000000000001010000000000000101
1111111111100110000000000000110011111111111111010000000001100011000000000001110100000000000010001111111111011011111111111111100100000000001101100000000000100001111111110101010111111111101001110000000000011100000000000001100111111111110111111111111111100000111111111110000011111111110001010000000000010110000000000010101000000000001101110000000000011000000000000001011100000000001011100000000001001000
1111111111110011000000000001111000000000000010001111111111011001111111111111001000000000000001110000000001000001000000000001011011111111111011001111111111011101000000000010100111111111110000111111111111001101111111111110011000000000000011000000000000001001000000000001001111111111111111100000000000101010000000000000100000000000000110010000000000110101111111111111010111111111110111001111111110110000
0000000000001000111111111011110011111111101111011111111111001100000000000000111011111111111111000000000000010011111111111100100000000000001011110000000000101110111111111100001011111111100101101111111110110000111111111011101011111111111010000000000000100010111111111111000000000000001110000000000000011000000000000001001000000000000110101111111111111101111111111111000100000000000011010000000000110111
0000000000100011111111111110100100000000000100111111111111111001000000000000100100000000001011001111111111001111000000000001000011111111111110100000000000001001000000000000111011111111111011000000000000010010000000000001010100000000001100101111111111101001000000000000000011111111111011000000000000110010000000000001011000000000000001110000000000010000000000000010010100000000000000101111111111000100
1111111111110110000000000001000000000000000001001111111111101011000000000011111000000000001100011111111111101011000000000010001000000000000111000000000000010111111111111111111000000000000111100000000000000101111111111110111000000000000011001111111111111101111111111100010000000000000011000000000000100110111111111110101111111111101011011111111111101000111111111111101111111111110010011111111111011100
1111111111111111111111111111010100000000000010101111111110101010111111111110001111111111110111110000000000001110111111111111010011111111110010010000000000010000111111111011011011111111101111000000000000010100000000000001010000000000000111111111111111110011111111111110011011111111111011101111111110111111000000000000011100000000011010110000000000100100111111111111100000000000000101110000000000001000
1111111111100001111111111110110000000000001000001111111110111110111111111110110100000000000101001111111111101001000000000001101111111111111010000000000000001001000000000001101100000000001110100000000000001000111111111010110011111111110101010000000000100000000000000100101100000000010001011111111111111110000000000001010100000000001010100000000000010001111111111111100111111111111001100000000000100011
1111111110010100111111111100010111111111100011111111111110110100000000000001011111111111110010011111111111000010111111111100100111111111111000000000000000101000000000000000010000000000000010001111111111111110111111111101111111111111110000110000000000010011111111111100111111111111110000111111111110110010111111111110111111111111111111100000000000010101000000000000001100000000000010010000000000000101
1111111110010010111111111101000011111111111101010000000000001100000000000000000111111111111000011111111111100111000000000000110000000000000100001111111111100001000000000010001011111111110011011111111110111101000000000001010100000000000110001111111111111111000000000000010111111111111111011111111111101010111111111010111000000000001001010000000000011010000000000001000111111111111110001111111111101000