1111111111100011000000001010010000000000000010101111111111001110111111111011101111111111111001101111111111111101000000000000110011111111110110001111111111101001111111111100100000000000001000010000000000101101111111111101010111111111111101110000000000100001000000000000011100000000000100110000000000101000111111111111011111111111111000100000000000001100000000000010011000000000000111110000000000010010
1111111111100101000000000100111000000000000000000000000000000110000000000001000011111111110001000000000000010011000000000101001000000000001011100000000001000000000000000010101000000000001010100000000000000010000000000001111000000000010111000000000000001101111111111110000100000000000001101111111111101010111111111110000100000000000111111111111111100101111111111100000011111111110101111111111111000010
1111111111001000111111111111010111111111110100101111111111010010000000000011110111111111111010011111111111111110000000000011010111111111101101110000000000100110111111111010111100000000010001000000000000001000000000000000001011111111110000010000000000110111000000000010000111111111111011100000000000100000000000000001101100000000001011000000000000001001000000000000010100000000001110000000000000010111
1111111110111001111111111110000111111111101011100000000000010001000000000011011111111111101100101111111111011001111111111011010111111111110010110000000000101100000000000001000100000000010001111111111111110111000000000011010000000000001000010000000000110110000000000010110100000000000011001111111111111101111111111101001000000000010111011111111111011001000000000000010100000000001011000000000000100011
0000000000001100000000000000000111111111110100010000000000110001000000001000111011111111111101000000000000001111000000000000000000000000001010010000000000011101111111111111101100000000001000001111111111111101111111111110101111111111110000010000000000100010000000000010011111111111110011100000000000101001111111111110011100000000000110110000000000000000000000000000101000000000011000100000000000100010
0000000001011010000000001010011011111111110000101111111110111001111111111011000000000000000011110000000000101000111111111011110011111111110001001111111111001101000000000010010000000000001001010000000000100100000000000000010100000000000011000000000000000000000000000010100000000000010000010000000000101001000000000001111000000000000011000000000000001111111111111100001111111111111011011111111111000101
0000000000101001000000000010000100000000010011100000000000000100111111111110100000000000000101001111111111100011111111111110110100000000010010001111111111111100000000000001111000000000000001001111111111111001000000000010100100000000000001000000000000111000000000000000000111111111111101101111111111110000000000000011100111111111111011101111111111110011000000000000110011111111110111011111111111100001
1111111111001110111111111100001111111111110010010000000000100011000000000001001111111111101101011111111111110010000000000010010111111111111110000000000000000001000000000000010100000000000011111111111111111011000000000000101000000000001011000000000000000110000000000010110111111111111110101111111111100000111111111100110000000000001101100000000000010110111111111111011111111111111010011111111111011011
1111111111111011111111111110011011111111111001010000000000011101000000000001110000000000000001101111111111011011000000000001011100000000001011010000000000101100111111111111010100000000001001011111111111011010111111111101001111111111111001001111111110110110000000000001011100000000000111101111111111011110111111111110110011111111111001100000000001010000000000000010110000000000000010101111111111110000
0000000000010101000000000100100100000000010101010000000000000001111111111111111000000000010001110000000000000000111111111111100100000000001110010000000000011100000000000010101011111111111010111111111111100110111111111111101100000000010100010000000000011001000000000011011100000000000001010000000000011111111111111110101111111111111111010000000000010101111111111101011011111111101111001111111111000101
1111111111110101000000000001000100000000000011110000000000101001000000000000010100000000001000110000000000000011000000000001111111111111110010101111111111010100111111111111111100000000010000010000000000100100111111111110101100000000000001100000000000010111000000000010110111111111111001111111111110111010111111111101001100000000000010010000000000001110000000000000110011111111111110100000000000010111
1111111111110111111111111110000000000000000001110000000000000100000000000001001100000000000101000000000000010110111111111111011011111111110101000000000000101000111111111011100011111111110110101111111111101001000000000011101000000000001011000000000000001010000000000001000011111111111101011111111111101011111111111101101111111111111011110000000000001110000000000001000100000000001010110000000000000010
0000000000000010111111111111111011111111111101101111111111001111000000000100010000000000010111110000000001101001111111111111011000000000000001010000000000111000000000000011110111111111111100001111111111000011000000000000111000000000001101110000000000000000111111111110011111111111110101010000000000110010000000000011111100000000000000001111111111101110000000000010010100000000001110000000000000111111
0000000000010010000000000001111111111111101010011111111111011100000000000000001100000000000101101111111111111110000000000000011100000000001011110000000000100101111111111111011100000000000111100000000000101010000000000011100100000000000110010000000000011001111111111110100111111111110111010000000000100000111111111101001000000000000001000000000000100010111111111010000111111111110001001111111110101010
1111111111100100000000000001011100000000000010100000000000011000000000000000011000000000001010111111111111111100111111111111111000000000010001110000000001001100000000000001001011111111111100011111111111101001000000000010010100000000011001000000000000001010000000000000010100000000001000000000000000011000000000000010111100000000000011101111111111111110111111111111011011111111111000111111111111100100
0000000000110001000000000011100100000000000110111111111111110011000000000000000111111111101101001111111110011100111111111110110011111111111000100000000000001100000000000011011011111111111101010000000000001001111111111110011111111111111000010000000001110101111111111101110100000000001011000000000000100111000000000100000100000000010010100000000000111000000000000001111100000000000110110000000000010110