0000000000011011000000000010110100000000000100101111111111010001111111111011000000000000000101010000000000000001111111111111011011111111101100011111111110111111000000000101111000000000001000001111111111111000111111110101000111111111110110010000000000100110000000000001111011111111101001011111111101011101111111111111111000000000010000010000000000000110111111111100011111111111100011000000000000000111