0000000000100011000000000110010111111111110101001111111111111111111111111111101100000000000100000000000000001101111111111101010111111111101111001111111111110100111111111110011100000000000010010000000000001010111111111110101111111111111100010000000000001110000000000010100011111111111010110000000000000101111111111100000011111111111010010000000000011000111111111111001000000000000111001111111110111110
1111111111010100111111111011101011111111101101100000000000000011000000000010000111111111100110101111111110010100111111111110000111111111111110100000000000010010111111111100110000000000000000001111111111010000111111111110011111111111110100010000000000000010111111111101110111111111110110010000000000010100000000000100000111111111101110001111111111110001000000000010010000000000001110000000000000111000
1111111110100011111111111111100111111111110000001111111111100010000000000011111111111111101011101111111111101011000000000000000000000000001111110000000001010110000000000001001100000000000100001111111111111100000000000010010100000000001010011111111111000100111111111100011100000000000011011111111111101001111111111111010111111111101011011111111111011100111111111110110000000000000000001111111110111010
1111111111110011000000000100101000000000000110110000000000010001000000000010010000000000010100110000000000010100000000000001110100000000000101100000000000000110000000000001100100000000001000001111111111110011111111111110100100000000000101010000000000001110000000000000011011111111111011100000000001001011000000000011101100000000000001011111111111111011000000000001110100000000000011101111111111000110
0000000000010111000000000010100100000000010010100000000010000101000000000011001100000000010001100000000000101001000000000010110000000000010000011111111111001100000000000001101000000000000111010000000000001110000000000000010011111111110010001111111111110000111111111110100100000000000001001111111101110011000000000000100011111111111111010000000000000101111111111100100011111111110000010000000000011100
1111111111010101111111111110110011111111111101011111111111001010000000000010000100000000000000000000000000010010111111111110100011111111110001110000000000101100000000000001100100000000000011010000000000010101000000000000000100000000000000110000000000100001000000000000101100000000000100000000000000000100111111111110001000000000000101110000000000100000111111111100001011111111111000111111111111001101
1111111111010100111111111011111111111111110100111111111110100000111111111100010011111111100001111111111101010001000000000000010000000000010001011111111110110010000000000100101111111111111101110000000000010100111111111111111100000000000101011111111111011010000000000001110100000000000001101111111111010100000000000001101111111111101001111111111111100110000000000000101100000000000010011111111111011001
0000000000010000000000000000000000000000001100010000000001110110000000000011110111111111111100000000000000001111000000000010110000000000000011010000000000100110111111111011001011111111110100110000000000011000111111111110101111111111110101001111111111100010000000000000010011111111111011101111111111011101000000000001110111111111111100111111111111011101111111111111111100000000001001110000000000011101
0000000000000110111111111101101011111111110000011111111110000101111111111100101011111111110000111111111111110100000000000010110000000000001111100000000000111101000000000000001100000000001010110000000000001000000000000011011000000000001100101111111111111011111111111101100100000000000010010000000000010011111111111110111111111111101101010000000000101110111111111111000011111111110111101111111110111111
1111111110110110111111111000110011111111110011111111111110100010111111111101000011111111100100001111111111001110111111111111111000000000001001011111111111110011000000000000000011111111111111100000000000100010111111111111010111111111111100101111111110010100111111111110101100000000001000100000000000010011111111111110001111111111111101110000000000110010000000000000101100000000000110110000000000110000
0000000000101010000000001000100000000000010000001111111111101011111111111111000000000000001111010000000000100101000000000001110111111111111000101111111111111010000000000001011000000000000110001111111111101101111111111100000111111111111100010000000000010001000000000001010111111111110010011111111111100101111111111111000111111111111010100000000000000110000000000001000100000000001000101111111110100101
1111111111011110111111111111000011111111110000111111111111010110111111111111101000000000000100010000000000000100000000000010110100000000010011110000000001011010111111111110100000000000001110010000000001000000000000000001010011111111111000011111111111110101111111111101100111111111111110110000000000000010111111111111011111111111110010010000000000100111000000000000100111111111111100101111111111011011
0000000000111000000000000000001011111111111100101111111111110001111111111101101111111111111010001111111111010110111111111010100011111111101111010000000000001000111111111101100011111111110011001111111111101011111111111110111000000000000000000000000001000110000000000001000100000000000000111111111111101001111111111111000000000000010001010000000000000001111111111110000111111111110110111111111111000001
1111111111110100111111110110001111111111011101111111111110011111111111111100000100000000001011001111111111110100111111111110001111111111101000011111111111011111000000000010010000000000001001001111111111101100111111111110010111111111111011010000000000000010000000000011010100000000000110010000000000001010000000000000100100000000000000010000000000110100000000000001010100000000000000111111111111101010
1111111111011011111111111011100111111111011110001111111110100010111111111111011011111111100010101111111101101011111111111100101011111111111011111111111111100010000000000000101000000000000100100000000000011001000000000000101100000000000001011111111111110111111111111111111011111111111100011111111111111111000000000001011011111111111001110000000000000101000000000010001100000000001011101111111111111001
1111111110011100111111111100111111111111110111001111111111111101111111111110011011111111110111011111111111000011000000000010011100000000000100010000000000111101111111111011000111111111110101110000000000001001000000000000110100000000001011011111111110111110111111111000100111111111110100000000000000100100000000000001010111111111111110111111111110010000000000000001000100000000000100101111111110110101