1111111111110101000000000100011111111111111101010000000000011010000000000000010111111111111000000000000000000011111111111111011011111111101111001111111111100100000000000000010011111111111101100000000000000010111111111100111011111111110111101111111111010100000000000001111100000000001011100000000000011010000000000010011011111111110110010000000000000101000000000011010000000000000011000000000000101110
0000000000110011000000000010101011111111111110111111111111100110111111111110010100000000000010000000000000000000000000000100100100000000001000011111111111111001000000000000100111111111110100101111111111000001000000000010010000000000010010101111111110000110111111111001000111111111111101010000000000011100000000000000101011111111110110100000000000001110000000000001101111111111111110100000000000001001
1111111111010100000000000000011000000000000111110000000000000110111111111011000100000000001010110000000000011010000000000011010100000000001100000000000000100011111111111110010000000000001001100000000001001011000000000010111100000000000000110000000000010011000000000011100000000000000100000000000000001111111111111111000011111111110110001111111111010010111111111011100100000000000000010000000000101110
0000000000010001000000000011010100000000000000110000000000011110111111111000011100000000001100001111111111110001000000000001011000000000001001100000000000101100111111111101011111111111110101100000000001000011000000000011111000000000010100111111111110110000000000000000011111111111111101000000000000010111000000000001001111111111111001111111111111001010111111111100000111111111111000101111111111110110
0000000001001000000000000001001000000000000010000000000000001111000000000011010011111111111110000000000000001001111111111111110011111111111111110000000000101110111111111110111000000000000001111111111111011101111111111010101111111111111000100000000000111001000000000000110111111111110110111111111111110101111111111111011111111111111110101111111110111001111111110101101111111111110111001111111111111001
1111111110110110111111111111010111111111111001010000000000010111111111111111000100000000000101101111111111110100000000000001000111111111111000100000000000010010000000000000110100000000010010000000000000100101111111111110011011111111111000001111111111000010000000000010110000000000000111010000000000010111000000000010001011111111111000110000000000011010111111111101011111111111110000100000000000000111
1111111111101111000000000000111100000000000111100000000000001111000000000000010100000000000110110000000000010001111111111111100000000000000010110000000000010011111111111101111100000000000001001111111111011101111111111111010000000000000001101111111111010100111111111101011011111111110110011111111111001011111111111101010111111111100011011111111110110111000000000000001000000000000101100000000000110000
1111111111110101000000000001010100000000000111000000000000011100000000000001111111111111110101100000000000011000000000000011100000000000000110010000000000001000000000000010111100000000000011100000000000100010000000000001110100000000001010101111111111011001111111111101110100000000000001110000000001000001111111111110011111111111011100101111111111011111000000000010001111111111111110001111111110011001
1111111111101000000000000000100100000000000100010000000000101000111111111111111000000000000010110000000000100111000000000010111000000000010110010000000001000000000000000001000011111111110110001111111111001110000000000001110011111111111011010000000000100000000000000001100000000000001000100000000000101001000000000000100011111111110110111111111111111001000000000100101000000000001000101111111111110010
1111111111001110111111111111110111111111111111111111111111111110000000000011110111111111111111011111111111001011111111111111101011111111101110001111111111011001000000000001000111111111111000011111111111000010111111111100001111111111111011001111111110000011111111111110101000000000000001111111111111011000111111111111011100000000000100010000000000010111000000000000000000000000000101000000000001100000
0000000000010100000000000111100000000000000011010000000000010100111111111101101111111111111001110000000000010000000000000000011100000000000010001111111111100111111111111110000011111111111110000000000000001111111111111111000011111111110101111111111111010001000000000001010100000000000011111111111110101000111111111100001011111111111111010000000000001100000000000010110111111111111111011111111111101100
0000000000000111111111111111001000000000000100101111111111010110111111111101111000000000000000010000000000011111111111111111100011111111111100011111111111010000111111111011100000000000000001000000000000011100000000000010110100000000001110000000000000100111000000000101001100000000001011001111111111110100111111111110100100000000001111101111111111111001111111111010001011111111110011100000000000011110
0000000000110100111111111111101100000000001000111111111111111011111111111111110111111111110000111111111111100111000000000010010100000000000110100000000000000011000000000100111000000000001011001111111110110000111111111011111011111111111111110000000001010010111111111110011011111111011101111111111110101011000000000001100011111111110101001111111111000110111111111110111111111111110011001111111111001000
1111111111001110111111111111011011111111111010011111111111010100111111111101000100000000000101110000000000111011000000000000001111111111111000111111111110110010111111111101110111111111111101101111111111010111111111111110000011111111111011111111111111011001000000000001011011111111111011000000000000101011111111111111010100000000000000000000000000101010000000000010100100000000001011010000000000101000
1111111111100101111111111111101011111111111101011111111111111011111111111111100000000000001000000000000000100011000000000001101100000000010000100000000000111011111111111111001011111111101110001111111111001010000000000000101000000000010011011111111110000011111111111001110011111111110011011111111111101111111111111100110100000000000010011111111111111101000000000000110000000000000010010000000000101010
0000000000001100111111111110111111111111111111100000000000011100000000000000100011111111110101111111111111101010000000000010101000000000000100100000000000010101111111111111100100000000001000010000000000001101111111111110010011111111111100101111111111010000111111111011101011111111111001111111111111011101000000000010111011111111100011011111111110000000111111111011100100000000001001010000000000101101