1111111111010011111111111110010100000000000010000000000000111010000000000000100111111111110000110000000000010010000000000011011100000000001011010000000000111101000000000000110000000000000010110000000000101101111111111110100000000000001000001111111111011011111111111100111000000000001010010000000000010000111111111111111111111111100010011111111110001000111111111101110011111111110110110000000000000010
1111111111101000111111111111100100000000001110010000000000000000111111111110010100000000001010000000000000011010111111111101100111111111111011111111111111100110000000000001101100000000000111110000000000001011111111111110110000000000000000100000000000010110000000000001000111111111111101111111111111110011111111111110000011111111111110010000000000001101111111111101001111111111110100111111111111110001
0000000000101111000000000001000000000000001000000000000000000101111111111101010111111111111101100000000000001001111111111111011111111111111110011111111111111111111111111010011111111111110010000000000000111111000000000000100100000000001000011111111111011110111111111010011111111111101010011111111110111110111111111101101111111111111011010000000000011001111111111110100000000000000100000000000000001100
1111111111011011111111111111010011111111110110111111111111101110111111111100101111111111110111101111111111001001111111111110001011111111111011101111111111010001000000000010111111111111100111110000000000010001000000000000111011111111111010001111111111010011000000000000001011111111111110111111111111110000111111111101100000000000001101010000000000001101000000000100111000000000000011110000000000101010
1111111111011101111111111110011111111111101101111111111101110010000000000010010111111111111100100000000000011001000000000011011111111111100101100000000000100011111111111110000100000000001100101111111111111000111111111111001011111111111010101111111111010100111111111100101111111111110110001111111111101100000000000010000111111111111110101111111111100110000000000000111000000000001100100000000000011001
0000000000111011111111111010010100000000000011110000000000100111000000000001001111111111110101111111111111001000111111111101011011111111111111100000000000000110111111111011000000000000000010101111111111000010000000000000110100000000001100000000000000010010000000000001001011111111111101010000000000101010000000000000011000000000001010000000000000110011000000000000101011111111110111101111111110111010
1111111111011000111111111111000100000000000001100000000000010111000000000000111000000000000101101111111111101110111111111110011000000000000000111111111110111000111111111111110111111111111000011111111111100011000000000000100000000000001000000000000000111101111111111010000111111111101101011111111110100111000000000010100100000000001110001111111111010100111111111101001011111111111100001111111111101101
0000000000100000111111111011000011111111101011110000000000000101000000000001001100000000000011110000000000011101000000000000011000000000001100000000000000110001111111111111110011111111110100110000000000011000000000000001111011111111111011001111111111010100111111111111001011111111110110101111111111001110000000000001101000000000000111110000000000001010000000000011100000000000000110100000000001001011
0000000000111111000000000011101000000000000111100000000000111010111111111111101111111111111101001111111111110011000000000001001011111111111011001111111111001100111111111111110111111111111000100000000000000001000000000001000100000000000111001111111111101010111111111110101100000000000010000000000000001010111111111010001011111111110101110000000000001100000000000001100011111111110110011111111111110101
0000000000001110111111111101111111111111111101010000000000010101000000000000010000000000000101010000000000000111111111111011110011111111111001101111111111110110111111111110111000000000000111111111111111111011111111111111010100000000010010111111111111011100111111111101001111111111110000101111111111100111111111111110011111111111111100101111111111101010000000000000010000000000000101011111111110111011
1111111111110110111111111111000011111111110111100000000000011010000000000010000100000000000000110000000000011100111111111111011000000000001011010000000000010100000000000000111100000000001001000000000000010110111111111111100000000000000011011111111111101110111111111101110011111111101010001111111111110100000000000011001111111111110010011111111111000110111111111010011011111111111110000000000000101110
0000000001010111000000000001100000000000000010110000000001010111000000000100000111111111111000101111111111100100111111111111010111111111111011100000000000000010111111111001010011111111110001001111111111110011111111111111010100000000001011101111111111000011111111111110001011111111101111011111111111001011000000000010010111111111110100011111111110101011000000000000000111111111111110010000000000110111
1111111111111100000000000000010100000000000101010000000000010100000000000000111011111111111110101111111111011001111111111100001111111111110111100000000000110110111111111111010011111111101000111111111111011001111111111100010100000000001010111111111111101000111111111001101011111111111111011111111111101111000000000011011100000000001000101111111111100110111111111110110111111111111011101111111111111101
0000000000001100111111111110101011111111110111010000000000010101000000000100000100000000000010101111111111000110111111111111001100000000000111100000000001110001111111111111000100000000001101100000000000000000000000000001001000000000010000100000000000011111000000000010001100000000000101111111111111111011111111111110110000000000000101000000000000101000000000000000100011111111101010011111111101110111
0000000000001010111111111110000111111111111010000000000000000000111111111101100000000000000110101111111111110010111111111100100111111111110010101111111110110010111111111101001111111111111011110000000000011101111111111111111111111111111101110000000000001010000000000000000100000000000000111111111111011001111111111100000000000000001001110000000000001100111111111100001011111111110001111111111111110111
0000000000000110111111111111110000000000000011000000000000000100111111111111111011111111101000111111111110100000111111111000011111111111111000001111111111000110111111111111100011111111110101001111111111101001111111111111011000000000000010100000000001100010000000000011000111111111110011000000000000001001111111111111000100000000010100010000000001101100000000000100100100000000000111011111111111101001