1111111111101110000000000000000011111111110010101111111111000110000000000000110100000000001110000000000000101001000000000011110100000000001011000000000000001111000000000011111000000000010101100000000001001001000000000010111011111111111001001111111111110010111111111111010011111111111001011111111110110010111111111011101011111111110000101111111110101010111111111010100111111111111100000000000000101110
1111111111111011111111111111101011111111111111000000000000010000000000000000011000000000001011000000000001000010000000000010011000000000000100010000000000000011111111111111100011111111111110001111111111110000111111111011110111111111101100000000000000010010111111111100001111111111011111011111111110100111111111111111101100000000000101100000000000001010111111111101110011111111101110010000000000010101
0000000000011001111111111111110100000000000101010000000000110011000000000010100011111111111011011111111111111111000000000100000100000000010110010000000001011001111111111111101111111111111100000000000000000011000000000010101111111111110100111111111111100110111111111011010111111111101100001111111110001101111111111001110000000000000000100000000000001010000000000001010111111111111100110000000000001011
1111111111011011111111111111110100000000000101110000000000000010000000000001010011111111110101101111111111111101000000000100010000000000010001110000000000110011111111111101111000000000001001110000000000101111000000000001010111111111101110001111111110011000111111111011010111111111100101111111111101110111111111111110011111111111101011011111111110110000111111111100001011111111111011000000000000010100
1111111111100011111111111111111000000000000101000000000000010011111111111111100111111111100100111111111111101101000000000011000000000000001001010000000000011010111111111101111100000000000001111111111111111101000000000000101000000000001001100000000000010110000000000000010100000000000001100000000000000110111111111111101100000000000100110000000000100110000000000010001000000000000000000000000000000100
1111111111111110111111111111010000000000001000010000000000000100000000000010110111111111110101101111111111111111111111111111000111111111111110001111111111000001111111111011011011111111100100111111111101010001111111110001110011111111011111101111111110111001000000000000000111111111111010011111111111010001000000000001011000000000000110100000000000110101000000000001101111111111111111111111111111110100