0000000000000010000000000000110100000000000011111111111111111011000000000000011011111111111001100000000000011000000000000010000000000000000100010000000000111000000000000001111000000000000101010000000000011111000000000001001111111111111010010000000000001101111111111110101111111111111100011111111111110101111111111010100011111111111000010000000000000101000000000010010000000000000110010000000000100010
1111111111011111000000000000010011111111111110100000000000000111000000000000101111111111110101011111111111110001111111111110000011111111111111101111111111011111111111111111001011111111110010011111111110101010111111111010001111111111101110111111111110111100111111111111001100000000000000110000000000011110000000000001100111111111110101110000000000000001000000000000100100000000000111110000000001000100
0000000000100100000000000001101100000000000010001111111111111000000000000000101000000000001011101111111111110000000000000000111000000000000111111111111111011111111111111110110100000000001000100000000000101010111111111100101011111111110001011111111111011000111111111111001111111111100010011111111110010000000000000000101111111111110111010000000000111110000000000010100100000000010000110000000000000110
0000000000100010111111111101000011111111111101101111111111111010111111111101101011111111111001101111111111111100000000000010100000000000001001100000000000001000000000000000100000000000010100000000000000000000111111111101001111111111100110011111111111011001111111111100110011111111101011011111111111011010111111111101111111111111110001011111111111111110000000000011110000000000001010100000000000001111
0000000000010101000000000001000111111111111101000000000000100101000000000011000100000000001100000000000000010100111111111110111100000000001001010000000000000110000000000001010100000000000001001111111111110000000000000000001111111111111001001111111111110001111111111101101111111111110011111111111101101100111111111011000111111111110100101111111111011011111111111001111111111111101001111111111111101010
1111111111000001111111111101000111111111111010111111111110111011111111111111011111111111110100001111111111101101111111111101110111111111100010001111111101010011111111111010011111111111101100011111111110000101111111111100011111111111110111101111111110010111111111111101010100000000000011100000000001001110000000000101000000000000000101110000000000101110000000000001101000000000001001011111111111101001