0000000000000101111111111100101100000000000010010000000000001111111111111110001011111111110110101111111111100010111111111110110100000000001000111111111111100110111111111101110000000000000101000000000000001111000000000001100000000000001001010000000000010010111111111001011100000000000110111111111111100001000000000000011011111111011111111111111110011011000000000010100100000000001010110000000000110101
0000000000011000000000000100000100000000001110000000000000011001000000000000111000000000001000111111111111111101000000000001011000000000001000000000000000100111000000000100001000000000001101010000000001001010000000000001010000000000001010000000000001000000000000000000010100000000000100001111111111101100111111111100011111111111111010011111111111100100111111111101100011111111111110001111111111110001
0000000000101001111111111111011111111111111101011111111111111011000000000001110000000000000111110000000000100010000000000000001000000000001010010000000000011011111111111101000111111111101100010000000000010111000000000011001111111111101101000000000000001111000000000000001011111111111000010000000000101010000000000001101100000000000000100000000000101010000000000000001000000000000101001111111111110100
1111111111111110111111111100011000000000000111100000000000110110000000000011010011111111110110000000000000001100000000000010011000000000000110000000000000110000000000000011101111111111110110011111111111100000111111111110100111111111101011101111111111010111000000000000010111111111111110001111111111011110111111111110010011111111111011010000000000010011000000000000111100000000000011110000000000000101
1111111111010011111111111011011011111111100111100000000000001000000000000110111011111111110011101111111111010111000000000001110111111111101001101111111111111010111111111011010000000000000110110000000000000011111111111100001011111111101110101111111111001100111111111110110011111111110010010000000000010000111111111100101111111111111110111111111111100111000000000001101000000000000110010000000000000101
0000000000101101000000000000111111111111110110101111111111001010111111111110011011111111111111001111111111010001111111111100011011111111110011001111111111000001111111111101000100000000000001101111111111111100111111111111100000000000000001100000000000001000000000000000100100000000000011000000000001010111111111111111011011111111111011011111111111100110000000000101010100000000000110010000000000001001
0000000000001110000000000000011000000000001011000000000000000000000000000000010100000000001101110000000000011100111111111110111000000000000101100000000000000000000000000010100000000000000010100000000000001000000000000010100000000000000100010000000000111011111111111110011111111111110101001111111111001111000000000001011000000000010011010000000000011010000000000000101100000000000101000000000000001010
0000000000010100000000000001110100000000000100000000000000011100000000000011111111111111111011100000000000011100000000000001011100000000000110100000000000001111000000000000111000000000001010100000000000000011111111111111011111111111110111110000000000001110000000000011010011111111111011011111111111100110111111111100111100000000000000011111111110111101111111111101011000000000000000101111111111111100
0000000000001010111111111110100100000000000100111111111111111100000000000001010000000000001000000000000000011101000000000001010000000000010001010000000001010111111111111101110011111111111011010000000000110111000000000011001000000000000101001111111111111001000000000000111000000000001000110000000000100010111111111110101011111111110011011111111111100011111111111111010000000000000001101111111111100101
0000000000111100000000000001111100000000000100101111111111110111111111111110011100000000010111100000000000011110000000000000011111111111110111000000000000010111000000000100111000000000010000100000000000010110000000000001111000000000000110100000000000010110000000000000011000000000000010101111111111110011111111111110111011111111111010001111111111101101111111111111100011111111110110111111111110101010
0000000000000010111111111000100000000000010000100000000000100100000000000001001000000000000001101111111111001001000000000000000000000000000011011111111111111000111111111110001111111111111110001111111111110101111111111111111011111111111001011111111111011010111111111011100011111111110100011111111111110000111111111110100111111111101000001111111111010110111111111101111100000000000110010000000000100110
0000000000010100111111111111000111111111101111100000000000010001000000000000010011111111111011011111111111001100111111111111011100000000010000100000000001011100111111111100011111111111101100010000000000000010000000000001110100000000000000001111111110010111111111111101011111111111111110111111111111001000111111111110011111111111110000110000000000001010111111111110000100000000000100010000000000100101
0000000000001011111111111111010000000000001010000000000001000001000000000110010100000000000010011111111111100010111111111110111011111111110101001111111110101111111111111101101011111111101110110000000000000011111111111101011111111111111101011111111111100111111111111101110000000000000001110000000000011101111111111110100011111111111011110000000000010110000000000010001000000000000001101111111111010011
0000000000011010111111111110111011111111110011001111111111011011111111111110110011111111111010111111111111001101111111111101010000000000000010111111111111111101111111111011101100000000010001010000000000100010000000000001111000000000000100011111111111111000000000000001010000000000000000111111111111011110111111111100100100000000000000111111111111111010111111111101111111111111110100011111111111011101
0000000000011100000000000000110000000000000011001111111111101000111111111100100100000000000001110000000000100001000000000010010100000000010000110000000000110000000000000010010000000000010011110000000000111100000000000011000011111111111101110000000000001000000000000001011100000000001110000000000000001001111111111011110011111111111110011111111111111111000000000000010100000000000001011111111111100111
1111111111111010111111111110001111111111111000111111111111000001111111111100111100000000000101100000000000001000111111111101110011111111111011111111111111111011000000000000011111111111111011111111111111011010000000000010010011111111111100010000000001110111000000000100110100000000010001110000000000011010000000000010110100000000010000100000000000100100000000000001100011111111111100011111111111110011