0000000000010100000000000000110111111111111010100000000000000111111111111110100111111111110111011111111111011011000000000011010000000000001001001111111111101100111111111100001111111111101001100000000000000111000000000011000011111111111010101111111110100001111111111111110011111111110101010000000000010001000000000001100111111111111010000000000000010110111111111111110111111111111011110000000000110011
1111111110010011111111111011010011111111101111110000000001000100000000000010000111111111111100101111111111010111111111111100100111111111101000110000000000100110111111111111111011111111111101001111111111011011111111111110110100000000000110100000000000100010000000000010010011111111111110010000000000001100111111111010110011111111111110111111111111001110111111111101110011111111111001101111111111010100
1111111110110000111111111110010000000000000110100000000000000100000000000000101011111111110000111111111111101001000000000010100111111111110100100000000000110101111111111100011100000000001110010000000001000111111111111100011111111111100110100000000000100100000000000000001111111111111100011111111110110011111111111100010011111111111110100000000000001001111111111111110011111111111101110000000000101000
1111111110101000000000000001101000000000001110101111111111111100111111111110100111111111111001101111111111010010111111111100100011111111111001100000000000010011111111111011100100000000000101011111111111011011111111111101110011111111101111000000000000110100000000000100010000000000000001101111111110001001111111111110010100000000000011110000000000111101000000000000100111111111101111100000000000001010
1111111111111100000000000000101000000000010011110000000000110011111111111111011011111111111000011111111111011000000000000011000100000000000101010000000000100001111111111111101100000000000110111111111111111111000000000010110000000000000110111111111111100001000000000010000100000000000011110000000000010110000000000000111000000000000011100000000000011110111111111111000100000000000001000000000000001111
0000000000001100111111111101100100000000000011110000000000000101111111111111101111111111110111010000000000011111000000000000100111111111100010011111111110011110000000000101010011111111100001100000000000110111000000000000001000000000001001010000000000000010000000000000000000000000000100110000000000011100000000000101010011111111110100011111111111110100111111111111010100000000000111100000000000111011
1111111111100110000000000000001011111111101010011111111111111001000000000100110100000000000111011111111111100110111111110111011111111111111001010000000001000111000000000000010011111111111011111111111111011011111111111010011111111111100111011111111111101111111111111110100011111111101101101111111110101010111111110111000000000000010100010000000001101101000000000011000100000000000010110000000000001010
1111111111101100000000000011010000000000000111110000000000110011000000000011000000000000001011010000000000010100000000000000001000000000001111011111111111000010000000000001011011111111101100001111111111101000111111111100010100000000000000000000000000100001111111111111101011111111111100100000000000000011111111111110101000000000001100010000000000100011111111111100000111111111111101001111111110110111
1111111111110000111111111101000011111111111101101111111111111001000000000000101111111111110110001111111111111110000000000000111111111111110101101111111110110101111111111111011111111111111110111111111111011010111111111101000011111111100001011111111111101100111111111110111111111111110011101111111110010111111111111100000000000000010000110000000000100110000000000000101000000000000101110000000000011110
1111111111101010111111111101101111111111111011011111111111001010000000000010100000000000000001010000000000100010111111111110001011111111110111110000000000100110000000000011101111111111111011001111111110110101000000000001000111111111111111100000000000101100111111111110010011111111110011011111111110111100111111111100010000000000000011110000000000000100000000000001011000000000000010010000000000011011
0000000000011100111111111111101100000000000011010000000000011011000000000101010111111111111110011111111111001010111111111110001000000000001010100000000000100000111111111110101011111111101101100000000000001001000000000010111011111111101001001111111111100000000000000100010000000000001010010000000000011101111111111111010111111111111010100000000000110000000000000001011111111111111000010000000000110111
1111111111011010000000000001110100000000010001110000000000101000000000000000010000000000000001101111111111011000111111111101011000000000001001100000000001000001111111111110001011111111111001001111111111100110000000000010010000000000001101001111111111111111000000000001011011111111111010111111111111001110111111111001001111111111111001110000000000100100000000000000011011111111111101101111111111001100
0000000000001001111111111101011011111111111101100000000000011100000000000110000111111111111001010000000000010001000000000011010111111111111111101111111111100011000000000001101000000000001011100000000000000101111111111111111011111111110111111111111111001101000000000010010111111111111110010000000000001011111111111111100100000000000001111111111111011001111111111101001111111111111111111111111111110111
0000000000000101000000000100001000000000001100101111111111011010111111111101011011111111110110000000000000011101000000000010101111111111111100111111111111111101000000000000010111111111110101011111111111111100000000000001101100000000001100001111111111010110111111111111101111111111111000100000000000000110111111111101010011111111110100001111111111101011000000000000010111111111111011010000000000001100
1111111110111100111111111110011011111111111110001111111111101100000000000001100011111111111010001111111111101011111111111100010111111111101110010000000001000011111111111111000011111111110111111111111111100100000000000001111011111111110011010000000000011010111111111110010111111111101110011111111110111100111111111010010100000000000100000000000000000011000000000010100000000000001010100000000000011111
1111111111010100111111111110111011111111111011100000000000010000111111111111111111111111111001100000000000010000111111111111100111111111111101101111111101111111000000000100010011111111111100011111111111000110111111111101000111111111111111110000000000001010111111111110010111111111110100111111111111001110000000000000000100000000001001110000000000110001000000000001101111111111111001011111111111110010