1111111110110000111111111001010111111111110010001111111110100100111111111101001011111111111110000000000000000010000000000011000100000000000000011111111111110011000000000000101100000000001001010000000000011101000000000010000000000000001000010000000000011000111111111111011111111111111100001111111111111000000000000000010000000000000001011111111111011000111111111011101111111111101101011111111110111000
0000000000000010111111111100010111111111100101111111111101011100111111111010111000000000001110100000000000100010000000000000001011111111111111000000000000100010000000000010111100000000000000100000000000101000000000000010101100000000001000101111111111100001111111111111011100000000000010101111111111101111111111111110110111111111111110011111111110010001111111111111001111111111110111101111111111111000
0000000000101110000000000000000011111111100111011111111110011101111111111011010011111111111101001111111111001000000000000000111111111111110101101111111111010111000000000001100000000000001001110000000000110010111111111111111000000000001001100000000000001111000000000000111111111111110110010000000000100101000000000000101011111111111100111111111110111110000000000000001000000000000101101111111111110011
0000000000111101111111111111110011111111011011111111111111101111111111111101011011111111110110011111111110100001111111111010100011111111101101101111111111101010111111111110000111111111110110011111111111011000000000000001010100000000001101001111111111100110111111111001111100000000000001110000000000110011000000000001111011111111110010111111111110111011111111111110011011111111111100011111111111101011
0000000000100111000000000011001011111111111111010000000000011100000000000000010011111111110001111111111111011111111111111101101011111111111011111111111111111001111111110101001111111111100011101111111111011001000000000000010111111111111011011111111111110111111111111111010000000000000110100000000000000000111111111110001100000000010011000000000000011001000000000001101011111111111000101111111111100110
0000000000011111111111111011011011111111110001101111111111100110111111111100110011111111111101100000000000001111000000000011000100000000001111000000000000111001000000000000000000000000000110001111111111100111111111111111101000000000000100101111111110101101111111111000001011111111101010001111111110100000111111110111101011111111101111001111111111001110000000000000011000000000000100110000000001000011