1111111111010010111111111100011000000000000111111111111111100111000000000000001100000000001010111111111110110001111111111110001111111111111010110000000000001000000000000111000011111111101001111111111111101110000000000000010111111111111001011111111111100100000000000001001100000000001110110000000000010001111111111111010100000000000111010000000001001000111111111111010111111111110101100000000000100010
0000000000000001111111111011001111111111110110010000000000000110000000000001011111111111111000111111111111101000111111111110100111111111111101001111111111101111000000000000011111111111111110101111111110110001000000000011000000000000010001101111111111011111111111111110001011111111111100000000000000011001000000000001001011111111111111101111111111100010000000000001100000000000000000001111111111001001
0000000000010001111111111111110000000000000010000000000000011110000000000000010100000000000001001111111110111010111111111011111111111111111111100000000000011110111111111101110011111111111100111111111111100110111111111110011000000000000001000000000001001101000000000010101111111111111010001111111111100100111111111011000000000000000001101111111110111100111111111001001011111111111101100000000000100000
0000000001001000000000000001010000000000001110000000000001000111111111111111010100000000001110001111111111110011000000000000000111111111111100110000000000011100111111111001111000000000000000110000000000000010000000000001010000000000000100111111111111100001000000000001111100000000001101011111111111101001111111111110101000000000000010111111111111100011000000000000111111111111111111100000000000100001
0000000000000100000000000010011100000000001111011111111111101000111111111111010111111111111101000000000000001111000000000001101100000000011000000000000000010100000000000010011111111111111111011111111111010010000000000011010000000000010011100000000001011111111111111111010100000000001000010000000000111111000000000011000100000000000010001111111111010101111111111011111111111111110111101111111111101000
1111111111010111111111111001000111111111110011001111111111110010111111111110001100000000000011111111111110101111111111111101100111111111101010111111111111111101000000000011010011111111110110100000000000011001111111111011111011111111111101001111111110110001111111111101000100000000000100101111111111100111000000000010010000000000000010111111111111111100000000000100000000000000000011110000000000111100
1111111111101011000000000000100011111111101001111111111111011100000000000011100000000000000000011111111111101101111111111111110011111111110110010000000001100100000000000001011000000000000010111111111111110000000000000001001011111111111110111111111111111011000000000000100011111111111001000000000000000011111111111110111011111111011001101111111110100101111111111110001111111111111001110000000000001101
0000000000000100000000000000110011111111111010010000000000100101000000000011000000000000000100100000000000001000111111111110110111111111111111111111111111101110000000000100000111111111111010111111111111111111111111111011111100000000001111001111111111000101111111111001111000000000000010110000000000000010000000000000000111111111110011110000000000010101000000000011111000000000001001011111111111010111
1111111111010101000000000001011100000000001100111111111111101100111111111110110000000000000010000000000000001011000000000010100111111111110111010000000000011111000000000011001111111111111001110000000000010110000000000000101111111111111111111111111111110011111111111111111011111111111110011111111111111001111111111111100000000000000100101111111110101011000000000000001011111111111110100000000000011101
1111111111000111111111111100110011111111101010101111111111100110000000000001011011111111110111010000000000010101000000000010111011111111110010101111111111100000000000000011001100000000000011101111111111101100000000000000001111111111111111011111111111001000000000000000000011111111111100100000000000000001000000000001000011111111111001110000000000000001000000000010011000000000010111110000000001001000
1111111111110101111111111100000111111111111111100000000000101010111111111110100011111111111110111111111110101011000000000011101000000000000111111111111111001110111111111100110011111111101100010000000000110101000000000001011011111111111011111111111111011100000000000000011100000000001100001111111111110111111111111111001000000000001110001111111111111101111111111110000111111111110100001111111111111101
0000000000101100000000000001100000000000010000010000000000000111111111111011010000000000000100100000000000001100000000000001011011111111111000110000000000001011111111111001010000000000000010110000000001010011111111111111000100000000001001110000000000000101000000000000100100000000000010111111111111000110111111111101001100000000010001000000000000011010111111111001110111111111110010000000000000110001
1111111111001111111111111101100011111111110101111111111110101100111111111111001111111111111000101111111111100101111111111111011011111111110110101111111111110111111111111111110000000000010110000000000000011010000000000001011111111111110111110000000000100110000000000001111011111111101010111111111111100100000000000001111011111111110100010000000000000011111111111110110111111111110010100000000000001001
0000000000011100000000000001001111111111111011101111111111011010111111111110100000000000000010000000000000011010111111111110000011111111111011001111111111010111111111111111110011111111111111110000000000000100111111111110011100000000000011011111111111001111111111111111000100000000010010010000000000111011000000000001011100000000000111000000000000010001000000000100001000000000011011000000000001001010
1111111110111010111111111111000111111111110101011111111111101111000000000010011000000000001111110000000000011001111111111010010111111111111000100000000000100000000000000001000000000000000000111111111111010101111111111110010000000000001011001111111111011000111111111110101111111111111001110000000000001011000000000001100011111111101011011111111111011110111111111111001111111111111110001111111111100100
0000000000011010000000000000001011111111111100100000000000000111000000000000101111111111110001101111111110111000111111111101111011111111110111011111111111110001000000000010001000000000001000001111111110101101111111111100000000000000000011111111111111010000111111111101001111111111110000101111111111011101000000000010010111111111100100101111111101110011111111111001100100000000000010110000000000100010