0000000000000100000000000010000111111111110101010000000000010100000000000010011111111111111000010000000000100100111111111101010100000000000101010000000000010011000000000000011100000000001010111111111111111100000000000010001111111111111111100000000000011011000000000010111000000000001100110000000000000111000000000010000000000000001110100000000001011100111111111111011011111111111000010000000001000010
1111111110011000111111111011111111111111110111110000000000001000000000000010101011111111100110111111111110011011111111111011111011111111110110111111111111100001111111111101100111111111101110111111111110101100111111111111111000000000001000101111111111101010111111111110111011111111111101010000000000010111000000000000000111111111101010101111111111000100111111111110001100000000000000111111111111001111
1111111111001001111111111110111100000000000101100000000000101000000000000010010111111111110100101111111111010011111111111111100111111111111000100000000000011100111111111011111011111111111110101111111111101110111111111110100100000000000100000000000000110111000000000011010100000000000000101111111111111100111111111100110111111111111100001111111110111101111111111110011011111111111100100000000000101101
0000000000110101000000000000101000000000000101110000000000001010000000000010001011111111111010111111111111100110111111111111101111111111111011000000000000010011111111111000011011111111111010111111111111101001111111111111001000000000000101010000000000011010000000000010000011111111111010111111111111101011000000000010000100000000000111000000000000001010111111111110011000000000000111010000000000011110
0000000000001111000000000010010100000000010011100000000000011110111111111100111011111111111100100000000000000010111111111111101100000000001100110000000000011110000000000010010000000000000100011111111111010110000000000101000100000000000110000000000000101010000000000000000000000000001001000000000000000101000000000011000100000000000011001111111111111101000000000010100011111111111010000000000001000011
1111111111011111111111111101101000000000010111011111111111110110000000000011111000000000010001101111111111111110000000000010110111111111111000110000000000101110000000000011011000000000000111100000000000001111000000000001010011111111110101001111111110100001111111111111010011111111111011000000000000001110000000000010001011111111111100111111111111110110000000000010001011111111110101010000000001000010
1111111111100101000000000000000011111111110110010000000000010111000000000011010000000000000001100000000000111100111111111001010011111111101001000000000000010011111111111011011000000000000110000000000000100101000000000010000011111111110101101111111110110100111111111101001111111111111000100000000000011111111111111100001111111111101111000000000000011001111111111111101011111111111001011111111111000100
1111111110111011000000000100001000000000000111000000000000101010111111111111011111111111111100111111111111111111000000000010000100000000000111011111111111000011111111111111111011111111110100000000000000111100111111111110110100000000000101011111111110111011000000000000001100000000001000000000000000110010111111111011011111111111101011010000000000010101000000000010001100000000000100111111111111111000
1111111111100011111111111100001111111111111001101111111111101001000000000001101011111111111100000000000000101011000000000010011111111111101101001111111111010010111111111111000011111111110110001111111111111001111111111111100011111111110111111111111111010110111111111011101011111111011110011111111111110110111111111101110000000000000001110000000000010010111111111111101011111111111100101111111111101111
1111111111010110111111111100100100000000000010011111111111011001111111111110110111111111111100000000000000001101111111111100110111111111111110111111111110101101000000000001000100000000000000011111111111100011000000000100001011111111111010101111111110001000111111110111101111111111110011010000000000000000111111111110000111111111111101110000000000011100000000000011001000000000000010001111111111111101
0000000000100101000000000100100000000000001101101111111111110001000000000000100100000000000001101111111111101001111111111111101000000000000110010000000000100001111111111101100000000000000001110000000000000111000000000011001000000000000011111111111111101010000000000100101000000000000010100000000000011101111111111110100000000000001111000000000000110011111111111111010111111111111110100000000000100100
1111111111101101000000000000100100000000000100010000000000100010111111111101111011111111111011001111111111110011000000000000011000000000001111011111111111111110111111111101001011111111111110010000000000111001000000000010110111111111111011001111111111111111111111111111001111111111111001111111111111100100111111111101010000000000001011010000000000010001000000000000010011111111110111110000000000011111
0000000000100111111111111111010011111111111011100000000000001110000000000001110011111111111111100000000000011010111111111111111100000000000111010000000000001110000000000101001100000000010010101111111111011001111111111110110011111111110111100000000001000100000000000001100011111111110100110000000000000000000000000010010011111111111001011111111111010010111111111011111000000000000011101111111111001011
0000000000010000000000000001100100000000010001000000000000010000000000000011001000000000001000000000000000011011000000000000111100000000000101011111111111010001111111111101110011111111111111100000000000010001000000000001100000000000001001111111111111000010111111111101001100000000001010110000000000101100111111111110110000000000000110010000000000001010000000000010011111111111111101011111111111110110
1111111110111000000000000000011011111111111011100000000000110111000000000100100011111111110000111111111111011010111111111010001111111111101011011111111111001000111111111110010011111111110111101111111111000010111111111111100011111111111101011111111110100111111111111010001011111111110001110000000000011110111111111100100011111111111110011111111111100100111111111111000011111111111100101111111111010101
1111111110110111111111111111010000000000000010110000000000111000000000000000010111111111110100000000000000100100000000000001101100000000000010011111111111011010111111111110001011111111111111111111111111000011111111111110001000000000000010101111111110010101111111110110100111111111011011111111111110101001000000000000111011111111100000011111111110000101111111111101011100000000000010011111111111110100