1111111111111101111111111101000000000000000110001111111111110001111111111110110100000000000100001111111111110111111111111111100000000000000010001111111111010111000000000101011100000000000011110000000000010011000000000000111100000000001001111111111111101000000000000001000000000000010001011111111111110101000000000001001100000000000111100000000000000000000000000001000100000000000010000000000000001010
0000000000111110000000000001001011111111111100111111111111101111111111111111111100000000000010010000000000000011000000000000100111111111110110000000000000010110111111111111111100000000000000001111111110010111000000000000110000000000001100101111111111110110111111111011100111111111101111110000000000100100000000000101111111111111110101001111111111001010000000000000010000000000000111010000000000110001
1111111111110110111111111111110000000000000010001111111111111101000000000011100000000000001110110000000000010001000000000010000111111111111010001111111111111011111111111100000011111111111111110000000000001001111111111110011100000000000101010000000000100000111111111111001111111111110110010000000000011111000000000001111111111111111011111111111110111011111111111111011111111111111100111111111111110001
1111111111110101000000000000000000000000000110110000000000001010000000000010110100000000000000110000000000000001111111111110010011111111111100110000000000011110111111111100101111111111110110100000000000110000111111111101011000000000000010001111111111100001000000000001111011111111110011101111111111111010000000000100100111111111110111011111111111111100000000000010100111111111111111011111111111000110
0000000000100101000000000010000000000000000000000000000000010101000000000100110000000000000000101111111111111111111111111111100011111111110100110000000000100110000000000000011011111111111010000000000000000111111111111011100100000000000001010000000001000101000000000000001000000000000111100000000000000100111111111110111100000000001100100000000000101100111111111011010011111111110000101111111111111000
1111111111101100000000000001001100000000001010101111111111011011111111111110111011111111111011001111111111111110000000000011011000000000000010001111111110110111000000000001101000000000000000101111111111110011000000000000100111111111111110101111111111000010111111111100111111111111111100111111111111010011111111111101111111111111110101110000000000100101000000000000110011111111101101001111111111001011
0000000000010101111111111111100011111111111100000000000000011011000000000000110111111111111011000000000000001100111111111100110000000000000011011111111111111110111111111110111111111111111001011111111111111001000000000001100000000000100001101111111111011110000000000001000100000000000100110000000000100110000000000100110111111111111000011111111111011101111111111101111011111111110101110000000000010101
1111111111100011111111111110000111111111111100111111111111011110000000000000101111111111111011010000000000101010000000000000001011111111110110011111111111110000000000000001111100000000000110010000000000000001111111111111011011111111111110101111111111100100111111111100001011111111111100010000000000100010000000000011100011111111101000001111111111110000000000000000110000000000001100111111111111101011
1111111111110110000000000001010100000000000111010000000000000100000000000010011000000000001011110000000000001100000000000100110000000000000101000000000000110010111111111111110011111111110011011111111111100010111111111110100111111111111010000000000000101100000000000000011011111111111000010000000000010101000000000100011100000000000000111111111110101001000000000000000100000000001010101111111111011001
0000000000010000000000000001110011111111110111001111111111111100000000000001100111111111111010011111111111010011111111111111101100000000000000111111111111100000000000000101001111111111111110001111111110111010000000000000101100000000001100011111111110011000111111111100111100000000000111010000000000101101000000000001011011111111111100110000000000001111000000000000000011111111111000000000000000111001
1111111111010111000000000011000000000000000111000000000000010100111111111111111111111111110101000000000000100011000000000000000100000000000100000000000000001011111111111111011100000000000010001111111111110111000000000001100011111111111000001111111111011010000000000000001100000000000011001111111111110111111111111100010000000000001111000000000000100011000000000011100000000000001001111111111110101111
1111111111011101000000000000000100000000000011101111111111111110111111111111110000000000000010010000000000100101111111111101010111111111110110010000000000110110111111111011001000000000000000110000000000001010111111111111110011111111111111000000000000100010000000000001011111111111111011011111111111110110111111111111101100000000001010100000000000101010000000000001111111111111110110010000000000001000
0000000000000110111111111111010100000000000000101111111111101000000000000010101100000000000101110000000000001110000000000001000100000000000100101111111111110010000000000011000000000000001100000000000000001010000000000000100011111111101000110000000000110011000000000010011011111111110001011111111111001100111111111110001011111111110011100000000000000001111111111101110111111111101101100000000000001110
1111111111101110111111111111111000000000000100101111111110110010111111111100101000000000000011010000000000010100000000000000000100000000000001011111111110011110111111111110010111111111111001101111111111100010111111111011100111111111111000011111111110101111111111111111000011111111110100010000000000001010111111111110101111111111111001100000000001001111000000000101100111111111111001110000000000000001
0000000000001001111111111111100111111111111101100000000000011011000000000001010111111111111111010000000000001010111111111110100100000000000100100000000000010000111111111110101111111111110000011111111110101011000000000001100100000000011000001111111111110010111111111100100011111111110111100000000000010111000000000110110111111111110101001111111111010001111111111110100011111111111100000000000000100010
0000000000101011000000000010011000000000000011010000000000001111111111111111110111111111110011101111111111100011111111111111010000000000001000111111111111110111000000000000010000000000001001001111111111110101111111111100000111111111111101101111111111101000111111111011100111111111111010111111111111100100111111111101111011111111100011111111111110000001111111111000000011111111110100101111111111001101