0000000000111010111111111111010100000000011000011111111111001000111111111100111000000000000001101111111111110111000000000010000111111111110101001111111110100001111111111111110000000000000100000000000000000111000000000001111111111111110001010000000000011011111111111110101011111111110100001111111111110010111111111110101000000000010011100000000001100011111111111111001111111111101110111111111111100110
0000000001010010000000000011011111111111111010010000000000010111000000000010000111111111111000111111111111011001111111111110010011111111111110000000000000010110000000000001011111111111110100111111111111011110111111111101011100000000000010000000000000011010000000000010101000000000000110100000000000101000000000000100101000000000000010100000000000110111000000000010111000000000010000110000000000000111
1111111111010111111111111100010011111111110011011111111111010010111111111000101000000000001100000000000000000001000000000010001000000000010010110000000000111010000000000010110000000000001001110000000000110011111111111100110000000000000101001111111111001011111111111100010100000000000101011111111111100111111111111111100011111111100011111111111111000011111111111110011000000000000111001111111111100100
0000000000000101111111111101000111111111110000111111111111101010111111110111100100000000000100011111111111000100111111111111100111111111111001011111111111011111000000000000100000000000000000100000000000010011111111111100010011111111111000100000000000000011111111111101001111111111111011000000000000000010000000000010000011111111110101001111111111001101111111111010100100000000000000111111111110110110
1111111110111111111111111010110011111111110100111111111111001011111111111011111011111111111111100000000000000111000000000001000100000000000000101111111111110111111111111111111000000000000010100000000000000001111111111101011100000000000110110000000000011101000000000100001011111111110011011111111110111000000000000001110011111111111011101111111111111011111111111010111111111111101011010000000000000011
1111111111111000000000000010100000000000000000001111111111011001111111111100100111111111111101100000000000101111000000000010111100000000000100001111111111110001111111111110001000000000001000010000000000010110111111111111001011111111101110001111111111001011000000000000100000000000000000111111111111111010111111111011000011111111100100110000000000010100111111111010101111111111100110011111111110100101
1111111111101111111111111111010111111111110010111111111111010100111111111101111111111111110110000000000000101001000000000011101000000000011011010000000001101000000000000001111100000000000000010000000000001111111111111111001000000000000000110000000000101111111111111111100000000000001111000000000001010111000000000000000011111111101101001111111111101000000000000001001000000000000101110000000000100100
0000000000000101000000000001110100000000000010100000000000111001000000000100000000000000001000000000000000010000111111111111010000000000000011110000000000001100111111111101111011111111111011101111111111100111000000000010101100000000000100001111111110000011111111111101110000000000000001111111111111111101000000000100000111111111110111000000000000001101000000000100010000000000000000111111111111010100
0000000000100000000000000000100011111111111001011111111111111010111111111111101100000000000010100000000000101101000000000011001000000000001000010000000001010010000000000001001011111111111110110000000000010110111111111111101011111111110110100000000001000000111111111110100011111111111100110000000000001101000000000000101111111111101111111111111110110010111111111011111011111111111111001111111111110101
0000000000001011000000000000001111111111111001100000000000000101000000000001011000000000000000101111111111101011000000000000110000000000010101000000000001011010111111111111111011111111110101111111111111100011000000000010001100000000001011110000000000000011000000000010010000000000010101110000000001001101000000000001001111111111101110101111111111100010000000000001000111111111111100110000000000000011
1111111111101110111111111111011011111111110001111111111111011110111111111001100111111111110001111111111111011111111111111101001111111111110101001111111110110001111111111110011011111111111001011111111111111101000000000001001111111111101110111111111111110101111111111101101111111111110100111111111111010100111111111001101011111111111111100000000001000000111111111010101011111111101011101111111110101001
1111111110001101111111111011101011111111111010101111111110110100111111111100000011111111111110011111111111110101000000000000101011111111111101010000000000100101000000000000001000000000000001110000000000000101000000000011011100000000001101001111111111110000000000000011110000000000000110010000000000010011000000000110000111111111100110101111111110110111111111111100000111111111111011111111111111001101
1111111111110101000000000001111000000000011001010000000000001101000000000101000011111111111100010000000000000011000000000010000111111111111111010000000000110100111111111110101111111111111110100000000000110111111111111100101100000000000111110000000000010000111111111100010011111111111110001111111111101001000000000010000000000000000001101111111110111101111111111111011100000000000101100000000000100101
1111111111111000111111111111101100000000010001110000000000110110111111111111111111111111111011001111111110101010111111111101111111111111111100010000000000000110000000000000001011111111111000011111111111111110000000000000001111111111110011111111111111111010000000000010110000000000010000010000000000110001111111111111010111111111101100010000000000100010111111111101111111111111111101101111111111010011
1111111111111010111111111110101111111111101010111111111110111110111111111100011000000000001001000000000000001100000000000001001000000000001000010000000010010100000000000000011011111111111101110000000000010001111111111110010000000000001001100000000000101000000000000010000000000000001001010000000000101001000000000011110111111111110111111111111111110110000000000010001100000000000011001111111111111011
0000000000000001111111111110111011111111110111001111111111101010111111111101011000000000000011000000000000010111000000000100000100000000010100010000000000101011000000000010011000000000001101110000000001010110000000000000011000000000000100111111111111010100111111111111100111111111111101010000000000011110000000000010101011111111111011110000000000000010000000000001001000000000001001010000000000010111