0000000001011001000000001000101000000000010100000000000000010111000000000001110000000000001100100000000000010100000000000000011000000000000101111111111111100010111111111101100011111111110010011111111111110000000000000011011111111111111011110000000000111111000000000000110111111111110110001111111111110001111111111100100100000000010100110000000000001110000000000000001100000000001100110000000000000101
0000000000010011000000000001100111111111111110001111111111000000111111111110011000000000001110110000000000010011000000000100001111111111110001111111111110101011000000000100011111111111110111001111111110100011111111111001111111111111111011001111111111111111111111111111000111111111101100101111111111100111000000000100111000000000001010100000000000100000111111111111010000000000000011000000000001011000
0000000000101011000000000000010011111111111001100000000000001001111111111111010000000000001010100000000000010011111111111101010111111111110110010000000000100110000000000111101100000000010011110000000000100010000000000010110000000000001100010000000000001101000000000001101100000000000000001111111111010010000000000000001011111111101100011111111111100011000000000000000111111111100100001111111110000111
0000000001001110000000000001010011111111111000110000000000100010000000000010000100000000001110110000000000001101111111111110010011111111101011101111111111110110000000000001110000000000000011101111111101111111111111111000111111111111110111010000000000100000111111111111100011111111101010111111111111111011000000000110110011111111101110001111111111010111000000000001100000000000000110001111111110001110
1111111111011010111111111100011000000000010001011111111111101011000000000010111011111111110001111111111111101111111111111111010000000000000100111111111111111011111111111101001100000000000000001111111111110011111111111111100111111111111010110000000000101001111111111111001011111111111111101111111111011011111111111110111011111111110110101111111111011011000000000001000011111111110101111111111111110010
0000000000011011000000000010110000000000000110110000000000101001111111111110001100000000001111000000000000101100000000000000110000000000000011110000000000000010111111111100110111111111111010100000000000001101000000000001101100000000001100011111111111111111111111111101010000000000000011011111111111101001111111111101000000000000000111110000000000001000000000000000010111111111111110001111111111110111
1111111111111001111111111111110000000000000110100000000000001000111111111101001000000000001010001111111111111011111111111110001111111111111011110000000000100111000000000001100100000000001100110000000001000011111111111111000100000000010110000000000000100110000000000001101000000000000110001111111111011100000000000001110111111111110100000000000000000000111111111111001011111111111000010000000000111010
1111111111110110111111111101100111111111111110100000000001011000000000000100111100000000000010100000000000010010111111111110001111111111111100100000000000111111000000000000101011111111111010101111111111111011111111111101010011111111110110101111111111000110111111111110000011111111101110111111111111101010000000000010010011111111011110101111111111000110111111111101001011111111111110100000000000001110
0000000001001100000000000000101011111111110111111111111111001111111111111110010000000000001000001111111111110000111111111111000111111111110111110000000000111010000000000001001000000000000011010000000000010111000000000001111000000000010001010000000000001000000000000001010100000000000111011111111111101011000000000001101011111111110100101111111111011111111111111110101011111111110010111111111110010110
0000000000011100000000000010001100000000000110011111111111101111111111110111110100000000001000001111111111101000111111111100010011111111111111100000000000000011000000000000010111111111110101011111111111011111111111111110001000000000010001100000000000010000000000000001110000000000001100000000000000110010000000000011000011111111110101100000000000011001111111111100111011111111111011110000000001011000
0000000001001001000000000010100111111111111100100000000000101010000000000001000100000000001001001111111111101101111111111110101011111111111110100000000000001110000000000000010011111111110000001111111111100010111111111111011100000000000001110000000001000011111111111011001111111111111010000000000000100100111111111101101000000000001100001111111111101010000000000010101000000000001101101111111110001100
0000000000001111111111111110011100000000000010100000000000010111111111111100011000000000001011101111111111110000111111111110010111111111111001110000000010000000000000000000001111111111111000101111111111100111000000000000001011111111110110110000000000010101111111111110100111111111111101111111111111100111111111111101111011111111100001001111111111000101000000000010011100000000000110011111111110111111
1111111111101010000000000001100100000000001111100000000001010101000000000011000111111111111100110000000000101010000000000000001011111111111100101111111111001111000000000000001011111111111011100000000000101010111111111100101011111111110010101111111111001100111111111111010100000000000011001111111111000101111111111101111111111111111111010000000000100000000000000100001011111111110111100000000000011010
0000000000010000000000000000000000000000000111001111111111111010111111111011000111111111110110101111111110111001111111111110011111111111110001001111111111010111111111111110110011111111110010001111111111110001111111111111001011111111111101100000000000010000000000000010010100000000000010100000000001000000000000000100001111111111111100010000000000100010000000000000110100000000000000010000000000011000
0000000000110011000000000000111111111111110110010000000000010100111111111010100000000000001010111111111111101000111111111101101011111111101101001111111111111010111111111110001111111111111101101111111111101100000000000010011100000000011110100000000000111010000000000010100000000000000100011111111111100000000000000001101111111111111110011111111111110000111111111110100111111111111001100000000000101000
0000000000011001111111111111011111111111110000111111111111001010111111111101110100000000001101100000000000100010111111111111010011111111111111001111111111101111000000000000010000000000001110100000000001011111000000000000011111111111111100101111111111011000111111111100111011111111111100101111111111101100111111111010001011111111100111011111111110110010111111111101101011111111101100011111111111011111