0000000000000010000000000001100011111111111110010000000000011111000000000001111000000000000001010000000000000010111111111111100000000000000111000000000000010101000000000001011111111111111001011111111111100011111111111101001111111111111001100000000000000101111111111111001111111111111000001111111111100110111111111111001111111111111011100000000000000101000000000001111111111111111100001111111111100101
1111111111101011111111111111000111111111111100111111111111101100111111111100010100000000000111000000000000001101000000000000110111111111110001111111111111011111111111111110011100000000000101011111111111010111111111111101101111111111111010111111111111110101000000000000011000000000000010100000000000001000111111111111000100000000000000011111111111111101000000000000001011111111111001111111111111011111
0000000000001100111111111111101111111111111110101111111111100100111111111110001011111111110110011111111111111001111111111110101011111111110110011111111111100000111111111111001011111111110101000000000000000101111111111111100111111111111000111111111111100111111111111110011111111111111110001111111111110111111111111101110000000000000011001111111111101110111111111110101111111111111011111111111111100100
0000000000000111111111111110011011111111111110010000000000000110111111111101011100000000000101011111111111100010111111111110001011111111110101101111111111101101111111111110110111111111110011001111111111101110000000000001111000000000000000111111111111110000111111111100111100000000000110000000000000000011111111111111011111111111111011000000000000000001000000000001010011111111111000001111111111101011
1111111111110101000000000001110011111111111111001111111111010101111111111111100111111111110111110000000000001011000000000000110111111111110111110000000000001001111111111100001011111111111110011111111111111011111111111110100100000000000000100000000000010010000000000000100011111111110110100000000000011100000000000000000100000000000011001111111111101111111111111110111111111111111110100000000000000000
1111111111100100111111111110111111111111111010110000000000011000111111111101101111111111111111011111111111110000111111111110111100000000001100011111111111010011111111111101111011111111110110011111111111110110111111111111011000000000000011011111111111100100111111111111000111111111111100001111111111110010111111111110110111111111111000110000000000001101111111111110010100000000000011011111111111010010
1111111111111111111111111111101100000000000000101111111111101110000000000000000011111111111010011111111111011011111111111101111111111111110111000000000000100111111111111101100000000000000001111111111111101000111111111111110100000000000011001111111111101100000000000000000011111111111010110000000000010101111111111110101000000000000101111111111111011111111111111111000011111111111010011111111111110000
1111111111101011111111111101000011111111111010110000000000000010111111111110000111111111110111001111111111100100000000000000000111111111111011111111111111010100000000000001111000000000000111010000000000101011111111111101110000000000000110110000000000001000000000000001100011111111111010111111111111011001000000000000110011111111110111100000000000000010111111111111110000000000000010111111111111110001
1111111111111001111111111101110100000000000001010000000000001101111111111100010000000000000000101111111111011111111111111110101000000000001000011111111111100101111111111111011011111111111110011111111111100000111111111111111111111111111100000000000000001010000000000000001111111111111101111111111111111101111111111110101100000000000010111111111111111001000000000000110011111111111101110000000000000001
1111111111110100111111111110110000000000000001100000000000000001111111111111000011111111111001011111111111110010000000000001101100000000001001101111111111111101111111111110010111111111111101001111111111101010111111111110001111111111111111000000000000000111000000000010000100000000000000001111111111111001000000000000000000000000000100100000000000001000111111111111100011111111111001001111111111110010
0000000000001010111111111110000011111111111111000000000000101100111111111110011000000000001110000000000000000100111111111101011111111111111110001111111111011001111111111110111011111111110101100000000000000011000000000000101100000000000011001111111111110100111111111101110011111111111101111111111111101100111111111101110111111111111001000000000000010000000000000001011111111111111010001111111111101101
0000000000010110111111111110110100000000000010101111111111101111111111111101111011111111111110011111111111101111111111111011111111111111111110111111111111101010111111111111001011111111111100011111111111110100111111111100100011111111111011001111111111010111111111111111111000000000000010111111111111101100111111111111111011111111110111000000000000001111111111111111010111111111111101001111111111101101
1111111111101001111111111111101100000000000111001111111111111100111111111111010011111111110101011111111111101101000000000001101100000000000100011111111111111101111111111110010011111111111010110000000000100001000000000000000011111111111011111111111111110101000000000000110011111111111001001111111111101011111111111111001100000000000010011111111111111101000000000001000100000000000011110000000000000010
1111111111100011111111111110111111111111111101100000000000010110000000000000011111111111111001011111111111101010111111111101101111111111110110111111111111011000111111111110000011111111110110111111111111100100111111111110011000000000000000011111111111101001111111111110010111111111111111101111111111011010000000000000001100000000000001110000000000000001111111111111010011111111111110001111111111101010
1111111111101110000000000000111100000000000000011111111111101111111111111101100111111111111110000000000000000001111111111111011000000000000110001111111111111001111111111110101111111111111011111111111111101000111111111111011111111111110101111111111111011011111111111111000111111111110011101111111111111111000000000000010100000000000101000000000000001110111111111111000111111111110111011111111111100101
1111111111110111111111111111011111111111110100110000000000001001000000000000010011111111110110011111111111110101000000000000000100000000000000101111111111000111111111111110111011111111111110101111111111101111000000000000101011111111111001101111111111101111000000000001000100000000000000101111111111101011111111111110111100000000000001001111111111111101111111111111110011111111111101100000000000000010