1111111110011101111111111010011111111111111001110000000000001110000000000100000111111111011111111111111110101010000000000011000100000000001100000000000001010111111111111100001000000000001101000000000000111001000000000100011000000000001010110000000000000111000000000000111100000000010101000000000000111100111111111100101111111111110010010000000000101000111111111101100111111111110010001111111110100101