0000000000011010111111111110001000000000000111100000000000010110111111111111100000000000001100100000000000101001111111111111111111111111111100111111111111011111111111111100011011111111110101001111111111000100111111111100110011111111110010011111111111101001000000000000110011111111111000101111111111100111111111111100010100000000001100110000000000010111111111111111001011111111100110011111111111100111
0000000001000000000000000001101000000000000011001111111111000001111111111011101100000000001010100000000000011101000000000001111111111111111010001111111111010110000000000011000111111111111111001111111110111001111111111111000100000000000010001111111110111100111111111100111011111111111001001111111111101001111111111111101000000000000111000000000000100011000000000000111100000000000001010000000000110000
0000000000001001111111111111001000000000001011010000000000001101111111111101000100000000000001001111111111100001111111111110110111111111110100111111111111110100000000001000011100000000001011010000000000000100111111111110101000000000000001110000000000010010000000000001010100000000000000011111111111101100000000000010010111111111111000100000000000011101111111111111111111111111111101000000000000010010
0000000000110101000000000001001100000000000000001111111111110011111111111010101000000000001000100000000000100100000000000001001111111111111101100000000000001000111111111111011100000000000110000000000000101010000000000001101100000000001011011111111111101000000000000000011100000000010000110000000000001100000000000010000111111111111111000000000000101101000000000010010111111111111001110000000000010000
0000000000100101111111111111111011111111101111001111111101111110111111111110010100000000000101110000000000011011111111111111001100000000000100010000000000101000000000000000110011111111111101000000000000001100000000000100001000000000001100110000000001011111000000000000110011111111111111100000000001000010111111111101110100000000011001010000000000001000111111111110110011111111110011101111111101101110
1111111110100101000000000000100000000000000111100000000000001100000000000001010011111111111101100000000000011010111111111110101100000000001101011111111111011100111111111011001011111111111001101111111111101100111111111111001100000000000110101111111111001010111111111101111111111111110101111111111111100010000000000010011111111111110011000000000001000101111111111101111000000000000110100000000000101010
0000000000001000000000000000000111111111111110110000000000111101111111111111011000000000000010001111111110101100111111111011110011111111110111010000000000000110000000000001110100000000001000111111111111100010000000000000111000000000010000011111111110111100111111111101000111111111110100101111111111101101000000000001010011111111100110111111111110010110000000000000111100000000000101110000000000100110
1111111111101111111111111100111011111111110101111111111111111010000000000001111100000000000101100000000000101101000000000000110011111111110111100000000000001101000000000010011100000000001011101111111110101111000000000000110100000000000100001111111111010000000000000000001000000000000010000000000000110111000000000111001011111111101101000000000000001110000000000001111100000000000100110000000000010100
0000000000000100111111111111111000000000000001010000000000010100111111111110001011111111111100100000000000010011111111111110110111111111110101101111111111010011000000000110011100000000000101001111111111101111111111111101101000000000000001010000000000011101111111111110101011111111111011011111111111101011000000000001000011111111110110101111111110110100000000000001110100000000000011010000000000010010
1111111111110101000000000011011000000000000110110000000000010001111111111100011111111111111111101111111111010110111111111100000100000000000111100000000000001111111111111010101111111111011010011111111110011000111111111011011100000000001000001111111110111100111111111100101111111111110101011111111111111111000000000011100000000000000011010000000000000011111111111111111100000000000011100000000010000001
0000000000000010000000000011010111111111101010111111111111110001111111111111010011111111111000100000000001010111000000000000001000000000000000000000000000000011111111111100001100000000000011101111111111111111000000000000100100000000001001011111111111110010111111111110010111111111111101011111111111100110111111111111101100000000001101100000000000110101000000000001100011111111110010101111111111000111
0000000000101110000000000011001000000000000000101111111110100111000000000000110011111111110110100000000000100011111111111101101011111111101101010000000000000010111111111111010100000000000010001111111111110000111111111111111000000000000111010000000000101010000000000011010000000000001001011111111111101110000000000010111100000000000111000000000000011111000000000000001000000000010100010000000000010001
0000000000010001000000000010010000000000001100100000000000001101111111111110110000000000000001010000000000000011000000000010101100000000001010100000000001101001111111111111110111111111111000111111111111100111111111111111111011111111111111111111111111100110111111111011111111111111110010001111111110101100111111111110001011111111111111101111111110011011000000000010101011111111111101000000000001001001
1111111111010001000000000000101000000000000001110000000000011100000000000001111111111111111000011111111111011111111111111100101111111111111100101111111111011100111111110111110111111111001011011111111111010111111111111101000000000000000101000000000000000010111111111110001111111111110100000000000000100101000000000100011011111111111100010000000000001010000000000000100000000000011000000000000001110001
0000000000011011000000000000100000000000000011000000000000001110000000000010000100000000000001111111111111100000111111111100110011111111110011011111111111000010111111111110000111111111111001101111111110010100111111111011110000000000000100001111111111000010111111111101011011111111110100111111111111001011000000000010010111111111111001111111111111011110111111111111110000000000000100110000000001001000
1111111111100100111111111111110011111111111110001111111111011111111111111111001100000000001101010000000000101000000000000000101111111111111111010000000000000010000000000100000000000000010011010000000001011010000000000010001011111111111011101111111110110110111111111101010100000000000010010000000000001000111111111111001111111111011101111111111110010101111111111011100100000000000111000000000000111001