0000000000011100000000000001011011111111111010101111111111101100000000000010100100000000000111011111111111001010111111111110111011111111111001010000000000110000111111111110100011111111101111001111111111010010111111111111010000000000000001001111111111101000111111111110011000000000000101011111111111010100111111111110001100000000000011000000000000010000111111111100100000000000000000101111111111100111
0000000000000111111111111110000011111111101101011111111111100111000000000011001000000000000101111111111111111100111111111000010111111111110000110000000000011011111111111111110111111111111100001111111111011100111111111110001100000000000111101111111111101101111111111111010011111111111011111111111111111101111111111110101000000000000101000000000000010110000000000000011000000000001101111111111111101010
0000000000011000111111111101000111111111110111100000000000011111111111111111101111111111100101011111111111010011000000000000111011111111111100011111111111010101111111111110001111111111111101111111111110110111111111111110000011111111111001000000000000000110111111111111011111111111111000101111111110111111111111111100100011111111111111100000000000001010111111111110001111111111111011111111111111101101
0000000000011110000000000000001011111111110111111111111110110000000000000000111000000000001010101111111111010001111111111101001100000000000001000000000000001000111111111101111111111111111010101111111111100011000000000000110011111111111111001111111111100101000000000000100100000000000001100000000000110010111111111111010100000000000011100000000000101011000000000011100100000000001001001111111111101101
1111111111100010111111111101010000000000000111110000000000011101111111111111010111111111110010001111111111111100000000000001101111111111111111111111111111111001111111111111010100000000000110001111111111111100000000000010010100000000001011110000000000010011000000000001111100000000001001000000000000001001000000000010010000000000001001001111111111011010111111111101011011111111111110100000000000010111
0000000000011100111111111011011111111111110100000000000000011100000000000011011100000000000101101111111111110111111111111101010111111111111001011111111111011011111111111110100011111111110011101111111111101011111111111100100011111111111011001111111111100000000000000001010111111111111011111111111111101010111111111111011000000000000000111111111111011011000000000000111011111111110110101111111111110000
1111111111011000111111111110000111111111100010011111111110101000000000000010110000000000000111110000000001000100111111111010011011111111101100010000000000111011111111111110110011111111110101111111111111111101111111111101111111111111110000011111111111101110111111111101111011111111111100101111111111110000000000000000010100000000001000011111111111110011000000000000111100000000000110011111111111011100
1111111111010010000000000001110000000000000101101111111111110010000000000000001111111111111001101111111111111101111111111101001011111111111110101111111111110011111111111111100111111111101101001111111111100000111111111110010000000000000000001111111111010011111111111100000100000000000010100000000000010110000000000001010000000000000000110000000000010000000000000010001100000000000110111111111111110111
0000000000001110000000000001001111111111111111101111111111001100000000000000001011111111111010001111111111110001000000000001001011111111101101101111111111000001000000000000010111111111111101101111111111000000111111111110100111111111110110101111111111000110111111111101101011111111111110100000000000000110111111111110101011111111110100010000000000110001111111111110101011111111110111001111111111100110
0000000000010000111111111100101011111111100001001111111111000000111111111111001100000000000010110000000000010010111111111101011000000000000010110000000000000000111111111110100111111111111001001111111111010000111111111110110011111111111000111111111111101001111111111010011111111111111010101111111111110000111111111011111100000000000101000000000000001101111111111111111111111111110101011111111111100111
1111111111111110000000000001101011111111110111110000000000100110111111111111111100000000000010111111111111110100111111111111100000000000001100110000000000000111111111111111101011111111110000100000000000010001000000000010101011111111111011111111111111111001111111111111011011111111111011100000000000011110111111111111110000000000000001010000000000010111000000000000010011111111111010101111111111110100
1111111111111011111111111110001000000000000111000000000001000100000000000000110011111111101010001111111110100111000000000000000100000000000110010000000000001111111111111100001111111111110101100000000001000000111111111111000011111111111100110000000000000101000000000011000100000000000100111111111111101001111111111101010011111111111100110000000000110000111111111101001000000000000001001111111111110010
1111111111101100111111111111001000000000000100111111111111110010000000000000011111111111110101110000000000000101000000000001111111111111110101011111111111110100000000000011001011111111111100010000000000000001111111111111100111111111111001001111111111110010111111111101010111111111111001100000000001000101000000000010000011111111111110111111111111000011111111111101101011111111111011000000000000001111
0000000000010000111111111011010100000000001111110000000000000110111111111110011000000000000011101111111111110110111111111100100011111111111010101111111111101110111111111101110111111111111101000000000000010100111111111110111111111111111011110000000000001010111111111111100111111111111001011111111111110001000000000011010100000000000011111111111111101111111111111101110100000000000000110000000000000101
1111111111111001111111111110110111111111110001001111111110010011111111111101110000000000001010000000000000100110000000000010000011111111110111111111111111001011000000000000101111111111111101101111111111111011111111111100110111111111101011101111111111110001111111111011000100000000000000011111111111110010000000000001000000000000001000110000000000011101111111111111100000000000000001001111111111100101
0000000000000110000000000000000111111111110101101111111111111010000000000001001111111111111101011111111111011100111111111101000011111111110101101111111110111000000000000001011000000000000011101111111111010100111111111111000111111111110111100000000000000000000000000000001011111111110100011111111111110000111111111111000111111111111011111111111110111010111111111100110011111111111000111111111111111011