0000000001001101000000000110000011111111101011010000000000001010000000000000110100000000001110100000000000010100111111111111101011111111110011011111111111101111111111111110010000000000000000001111111111011101111111111111100011111111111110100000000000011000111111111110101100000000000110110000000000100001000000000011110100000000001011100000000000010111000000000010111100000000000001100000000000101110
1111111101101000111111111101101011111111111101011111111111110001000000000010010011111111111110011111111111101111000000000010000100000000001001100000000000101011000000000001110111111111110100111111111110001010000000000000010100000000010001000000000000001010111111111010001011111111101010111111111110100110111111111010011011111111110000011111111110110100111111111110100111111111110110011111111110100101
1111111110111010111111111111110000000000000010001111111111110010000000000001000011111111111100110000000000100111000000000001011011111111111000010000000001000001000000000001010000000000010000011111111111101011111111111111101011111111111110000000000000101010000000000100011100000000001101011111111111110110111111111100100011111111110001011111111110010111111111111101000011111111111100000000000000001011
0000000000111100000000000011000100000000000100110000000000100100000000000001110011111111111110101111111111101010111111111111101100000000000000010000000000100110000000000000010011111111111110001111111111011101000000000010001100000000001011100000000000010001111111111111110011111111111011101111111111101111000000000000111100000000001001111111111111000001111111111110011000000000010001010000000000001100
0000000000110010000000000010111100000000001001100000000001010000000000000100100100000000000010001111111111101110111111111101110000000000000100110000000000110000111111111111110000000000000100111111111110110110111111111111111011111111111010010000000000001100000000000001111111111111111100101111111111100010111111111111110000000000000111001111111111110100111111111100101011111111111110010000000001000101
1111111111110010111111111110000100000000000001011111111111111100000000000010011000000000000110010000000000100100111111111111000011111111101110110000000000100101000000000001011000000000001110110000000001001010111111111110000111111111111010110000000000000000000000000001110100000000001100000000000000100011000000000011001100000000000010011111111111111010000000000001100011111111110100110000000000001101
1111111111111101000000000001001100000000000001101111111111110001000000000000101000000000001001101111111111111111111111111001001011111111111000110000000000101111000000000010100000000000000011101111111111100101000000000001011011111111111110101111111111011110000000000010100011111111110101110000000000001101000000000000000011111111111110101111111111100100111111111101101011111111110101100000000000010000
1111111111111110000000000001111000000000001000110000000000110010000000000001000100000000000001101111111111010101000000000000110100000000000010000000000000000111000000000010001111111111110110010000000000010111111111111111111100000000000011010000000000100001111111111100000111111111110110111111111110100111111111111000110111111111011101101111111111001011000000000010110111111111110111111111111111110101
1111111111011100111111111111010011111111111111101111111111111011000000000000111000000000000110110000000000010100000000000101001111111111111100100000000000011110111111111111111100000000001010101111111111101000111111111111110011111111111001101111111111111001000000000011101000000000001001011111111111101110000000000000010100000000001100000000000000011011111111111110111000000000001001001111111111010110
1111111111000011000000000000100000000000010000011111111111000110000000000001111011111111111011101111111110111011111111111100010000000000000001110000000000001110000000000010010111111111111100101111111111100000111111111100001011111111110001001111111111101110111111111110001011111111111001111111111111100001111111111010110000000000000010010000000000011011000000000010001000000000001101000000000000100110
0000000000101110000000000011011100000000001100010000000000011101000000000010101000000000000010010000000000000111000000000000001111111111111100001111111111101000000000000000011111111111111100100000000000000010000000000000001111111111110101001111111111111010111111111101101100000000000111011111111111101100111111111100001100000000010001100000000000100000000000000000101111111111111101110000000000011000
1111111111100011111111111110100111111111111110111111111111011111111111111101110100000000000100110000000000011111111111111101101000000000000101111111111111111111000000000000100111111111111100010000000000011010000000000001101111111111111101000000000001001010000000000011001111111111111011111111111111100010111111111111010111111111111111110000000000011001111111111110100111111111110001001111111110101100
0000000000011100111111111110011011111111111010110000000000001100111111111111011011111111110010011111111111101111111111111101010011111111111101110000000000010001000000000001001100000000001101111111111111000010000000000001001000000000000000100000000001000111000000000100001111111111101101011111111110101000000000000001110000000000000000011111111111100111111111111100011011111111111000011111111111100110
1111111111110010111111111100111111111111111101011111111111001111000000000001010111111111111110010000000000111011000000000010001111111111101011101111111111011000000000000000111000000000001011110000000000011000000000000001100000000000000110000000000000000010000000000000000100000000001000110000000000110011111111111110110000000000000011110000000000111110000000000011000000000000000010001111111111100110
1111111111110111111111111111110011111111110110110000000000000000000000000001011100000000000000101111111111100110111111111101110100000000010000010000000001100011000000000011000111111111111010101111111111010100000000000001111100000000010110101111111111111010111111111110000111111111111100011111111111111111111111111110010111111111110110101111111111110100000000000000111011111111111001101111111110101000
0000000000010001111111111111111000000000000111110000000000010011000000000010000100000000001001010000000000111101000000000001011100000000000010100000000000000100111111111111010000000000000110010000000000000001111111111110100011111111111101000000000000000001111111111100110111111111111101101111111111100011000000000010101011111111110000101111111110000001111111111011100100000000000011111111111111110011