1111111111001001111111111010111011111111101100000000000000010110111111111111010100000000000101001111111110111111111111111000001000000000000000101111111111110001111111111111110011111111101111011111111111000011000000000010000100000000000010010000000000100110111111111110111100000000010110000000000000011111000000000000101000000000001011100000000001010110000000000111000000000000010110101111111111001100