0000000001100111000000000101011100000000010111010000000001001000000000000010111111111111110000111111111111111111000000000001111000000000000100010000000000100101111111111010111011111111101010111111111110111101111111111110111000000000000001000000000001011110000000000001011111111111111000100000000000000100000000000000010100000000001100000000000000110010111111111010111011111111110011111111111111100101
1111111111100111111111111110100111111111111101010000000000010001000000000001010011111111111010110000000000101001000000000010100000000000000101010000000000000110000000000001010111111111111011011111111110100100111111111001110111111111101011110000000000011100000000000000001000000000000001001111111111001011111111111110010000000000010000110000000000011111000000000000010000000000000010110000000000011110
1111111110000111111111111100110011111111111000011111111111100000111111111110110011111111110000010000000000000111111111111110010111111111011010011111111101111001000000000110000100000000011000011111111111100011000000000000010111111111110111000000000000000100000000000101001000000000000111100000000000001000000000000010000111111111110111100000000001010011000000000010001000000000001000100000000000101100
1111111110011111111111111100100111111111111110011111111111011010111111111111011011111111110001110000000000000000000000000000010111111111101000001111111110101000111111111111110100000000000111111111111110111111000000000000101011111111101000100000000000001010111111111100010011111111111110101111111111110111000000000000000100000000001111000000000000001010000000000011011000000000000110010000000000111110
1111111111111000000000000001100000000000000111000000000000001000000000000000000011111111111100001111111111110000000000000010000111111111111111110000000000101111000000000000010111111111110110111111111111100000111111111101110000000000001100110000000000010001000000000010001011111111111010010000000000010000111111111110111000000000000100100000000000001001000000000000010011111111110010101111111111011101
1111111111101111000000000101010111111111110110010000000000010110111111111111110100000000001001010000000001100110111111111101001100000000000001011111111111000100111111111110001100000000000001001111111111110100000000000001001111111111111101010000000000000110000000000001000100000000001001110000000000111000000000000100010111111111110000100000000000000110111111111010101111111111111100110000000000011100
0000000000001001000000000000111100000000000011000000000000000011000000000000001000000000001001001111111110101011111111111011010111111111111101111111111111111010000000000010110000000000001001010000000000110010000000000000100111111111111110000000000000110001111111111110001000000000001101000000000000000010000000000000011111111111101111001111111110111100000000000001011100000000001000110000000000001010
0000000000101000111111111101101011111111111110111111111110111001000000000001011000000000000111101111111111100001111111111110110011111111100111000000000000110001111111111111000011111111111101111111111111111011000000000101011100000000001011001111111111110010000000000011000100000000000011010000000000000000111111111111111100000000011100010000000001100111000000000001110111111111110010000000000000110010
1111111110110010111111111001101011111111110101000000000000000011111111111110110111111111101101101111111111000000111111111101001111111111101011011111111110001110000000000001110000000000011001101111111111110101000000000011011111111111110110010000000001100011111111111111111111111111110101000000000000001111000000000001010011111111110111111111111110101000111111111110000111111111111100101111111111101000
1111111111110001000000000101111000000000010001000000000000010000000000000010100100000000000100101111111111111001111111111100000111111111111010000000000000100101111111111111101111111111111010001111111111111001111111111100111011111111111111000000000000000101111111111111011000000000010001010000000001000100000000000000011100000000000000010000000000000100111111111101010100000000001001110000000001000001
1111111111111000111111111110000100000000001010100000000000100110000000000100000011111111100110010000000000000100000000000001001111111111111101001111111111011111111111111011001011111111111011001111111111001101000000000001000111111111110011110000000000110000111111111110010111111111110001110000000000010010111111111100001100000000010000011111111111100100111111111100110000000000000001000000000000011110
1111111110000001111111111110011111111111111111011111111111111001111111111101111011111111111100000000000000100010111111111101011111111111110110001111111111110001000000000011000100000000000001100000000000010011111111111101001100000000000011000000000000100100000000000001110100000000000111100000000000100110000000000111101111111111110011010000000000000011000000000010111100000000001000110000000000000110
0000000000111010000000000011001011111111111011101111111111111011111111111111001100000000001001110000000000011000111111111110010000000000000001000000000000000100111111111100101111111111101111110000000000000000111111111011100000000000000101111111111111010010111111111111101000000000000110010000000000010001000000000001010000000000000001111111111111100001000000000011111000000000001101100000000001100001
0000000000001110000000000000010100000000001001100000000000100010000000000001101111111111110111011111111111010011111111111110101011111111101111100000000000010001111111111110111111111111110110110000000000010110000000000001010111111111101111110000000000101001000000000001000000000000001000000000000001010101000000000010101111111111111111111111111111111000111111111001111100000000000000000000000000001010
0000000000000110111111111111110100000000001001010000000000001111000000000000101000000000001110100000000000000011111111111110011111111111111010110000000000011001000000000000111000000000000100100000000000001100111111111100100000000000001000000000000000000100000000000001001100000000001011010000000000100111000000000010101111111111101111001111111111010101000000000000101100000000000100110000000000110110
1111111111001111111111111101011111111111111111111111111110111000111111111110000100000000010100010000000000111111111111111111100111111111110011101111111111110001000000000111011100000000010110110000000001110101000000000100010000000000000001000000000000001010111111111110000100000000000010100000000000000100000000000001110011111111111101111111111111101010111111111011110011111111110111000000000000010110