0000000000011001000000000010111000000000001110011111111110011111111111111100100000000000001000000000000000011011000000000110100011111111110010111111111111110100111111111101111111111111111101110000000000000101111111111101111111111111110011101111111111110011111111111110111000000000000010101111111111110010111111111100001011111111110010111111111111110000000000000101010011111111101100001111111110011011
1111111101110010000000000001110100000000001111000000000001010010000000000011110111111111111100000000000000100111000000000010000000000000001101000000000001001010000000000000001000000000001100000000000000101000111111111100011111111111110100100000000000100100000000000001010100000000000100110000000000011000111111111010100000000000000110010000000000011101111111111111101111111111111010011111111111100010
1111111111010100111111111101010011111111110001111111111111101000000000000001100111111111110110011111111111101111000000000001110100000000000000111111111111100100111111111110010000000000001001010000000000111001000000000011100011111111101111010000000000000101000000000001100000000000000101111111111111101100111111111110110000000000000100110000000000011100000000000100011000000000001000100000000001001001
1111111110100000111111111101010011111111111111011111111111111111000000000010001011111111111010101111111111011001000000000010100000000000000011111111111110010100111111111111100000000000000110000000000001001010000000000000001111111111101000011111111111110000000000000010000100000000000101000000000000101010111111111110011000000000011001100000000001101001000000000010001000000000000100000000000001000010
1111111111011110111111111110111000000000000100001111111111010101111111111110110000000000000100010000000000100001000000000100101111111111100101111111111111000110111111111110010000000000001110100000000000010111111111111101110011111111111101101111111111001111000000000010101100000000000100011111111111111100000000000000011011111111111010100000000000100101000000000010111100000000001000011111111111101110
0000000000100101000000000011101111111111101010101111111110010001111111111000001100000000000100110000000000101001000000000000000111111111111110001111111111010011000000000011100011111111111110001111111111110101111111111111010000000000001001101111111111100010111111111111101100000000000110110000000000100110000000000001000111111111110101010000000000011101000000000010010000000000000011001111111110101010
1111111111100001000000000001001000000000000010110000000000010111000000000000000100000000010000111111111111110001000000000001000100000000011011000000000000100010000000000010111100000000000101100000000000001110000000000011110000000000001011100000000000101001111111111110101000000000001010100000000000011000111111111110110000000000000111110000000000000111000000000010100000000000000000001111111111011010
1111111110111000111111111101100000000000000101000000000000100110000000000011111011111111110011100000000000010000000000000000101011111111110111010000000000101100111111111101110000000000001111001111111111110110000000000001000011111111101011111111111111111011000000000011011100000000000011000000000000000111000000000000101100000000001110010000000000111111000000000011001100000000000010111111111111111010
1111111111101000111111111100110011111111110101100000000000011100000000000000101011111111110000101111111111100011111111111111111000000000001101001111111111101011111111111111010000000000001001000000000000110100000000000001100100000000000010110000000000001111111111111101110111111111110110000000000000100000111111111011111011111111110000110000000000010111111111111101001011111111111101100000000000111000
0000000000101011000000000011011100000000001111110000000000110011000000000010001100000000001110000000000000100000111111111111111100000000001010110000000001001010000000000001111000000000000001011111111111111010000000000000100111111111111011000000000000000100111111111110100011111111111110111111111111111001111111111100101011111111111101001111111111010111111111111101110111111111111001101111111110010010
1111111111111101000000000000111000000000000110001111111111100011111111111101100000000000000000010000000000110011000000000011111111111111110001001111111101101110111111111110111100000000000101010000000000000100111111111101001011111111110101111111111111011101000000000001010000000000000010111111111111100111111111111011110111111111110101100000000000111100111111111111001011111111110101011111111111101010
1111111110101000111111111111011011111111110111011111111111101001000000000001010111111111101111011111111111101011111111111110111011111111111110010000000000111001111111111100110011111111111110101111111111110110111111111110111011111111110111111111111111010111111111111110000000000000001011101111111111000010000000000000011111111111110111010000000000100000000000000011111000000000001010010000000000110110
1111111111110111000000000011100000000000010000001111111111101011000000000010111011111111111111100000000001100111000000000011010111111111110000110000000000011111111111111101101011111111111000010000000000011010000000000000110000000000001101001111111111101100000000000010011000000000001011010000000000010110000000000001010000000000001001110000000000110000000000000000110000000000000001000000000001001010
0000000000010011000000000000010100000000000010000000000000010100000000000000000111111111111110111111111111000110111111111101111111111111111011010000000000100010111111111111100111111111111001010000000000001111000000000000011111111111111110111111111111011101111111111101100000000000000111111111111111100011111111111111101011111111110100101111111111111001111111111110100111111111110001011111111111010111
1111111111001101000000000000111100000000000101010000000000000111000000000011101011111111111110010000000000010100000000000000110100000000001011000000000000110010000000000001001011111111111101011111111111110111000000000000011100000000000111010000000000111010000000000010001100000000001010001111111111110010111111111110101111111111110101011111111111101111111111111110110111111111111010101111111111011010
1111111111010111111111111101101011111111111001011111111111011000111111111100100011111111101101001111111111110101000000000100010000000000010000010000000001001011000000000011001100000000001010110000000001011110000000000011101111111111111110000000000000111011111111111111001100000000000110100000000001001000111111111111101100000000010110000000000000010011000000000011101000000000011010010000000000101101