0000000000011001111111111100100000000000010100001111111111101010000000000011111000000000000011101111111111010101000000000010000000000000000111110000000000101000000000000001001000000000000010110000000000101110000000000000111011111111110101001111111111010111111111111110100100000000001010110000000000010101111111111100010111111111111000110000000000000110000000000001010100000000000010011111111110111100
1111111111001000111111111010101111111111100101010000000000001011000000000000010111111111101110001111111111110101000000000001101011111111110111100000000001000111000000000000000100000000000101000000000000110111000000000001100000000000000100000000000000000000111111111111001111111111110100111111111111111101111111111101011000000000000101011111111111111110111111111110011000000000000001011111111111010001
1111111110111101111111110111100100000000000011011111111111111001111111111111001111111111101111011111111111101001000000000001011000000000000101011111111111110001111111111111101100000000000000011111111111011111111111111110110111111111111100010000000000010001000000000000110011111111111001111111111110111111111111111010111111111111110110001111111111010111000000000000000111111111101011001111111111101010
0000000000010001111111111000110111111111111111100000000000001001111111111110111111111111111110010000000000111111111111111111101100000000000001101111111111100101111111111111001011111111111101010000000000001011111111111111010111111111110111011111111111100110111111111110010111111111111110011111111111010110111111111111001000000000000000010000000000010111111111111100000111111111100100001111111111101101
1111111101111100000000000000110000000000010001110000000000001110111111111111100011111111110110100000000000010010000000000011001100000000001101110000000000011000111111111110110000000000000100000000000000001101000000000111101100000000000101001111111111101101111111111111110100000000000011100000000000011111000000000000010100000000000100111111111111110011000000000011100111111111111110110000000000010101
1111111111000110111111110111000100000000000110000000000000111101000000000010001011111111111011111111111111010001111111111100001111111111111100100000000000000001000000000001100011111111110110101111111111011011111111111100011000000000010001010000000000001100111111111111001000000000000111001111111110100010000000000100101111111111110101011111111111100101000000000011110000000000000001110000000000100011
1111111101100111111111111101101011111111101011101111111111110011000000000110010100000000000101100000000000111100111111111101101000000000000111000000000001101001000000000000101111111111111111100000000000001101111111111111010011111111101010010000000000000110000000000000110011111111111001101111111111010111111111111011110100000000011101100000000001000001000000000001010100000000001010001111111111100110
1111111111001101111111111111101011111111111111010000000000001010111111111111010000000000000100100000000000111100111111111111011100000000000001000000000000000111000000000000101011111111111000110000000000000001000000000001001100000000001110011111111111100001111111111101000100000000000101010000000000010111000000000000101000000000000110110000000000110011000000000010010011111111111110011111111111011111
0000000000010111111111111010001111111111111011100000000000001000000000000010110100000000000000001111111111101010111111111111111111111111110001011111111110010110111111111111110111111111110111011111111111111101111111111100010111111111100110000000000000000010111111111110100111111111101011101111111111100101111111111110111100000000001011000000000000100000111111111101110111111111111001111111111111101100
1111111101111010111111111011111100000000000000111111111111111110000000000001101100000000000101010000000000011010111111110111111100000000001001010000000001010111000000000000011111111111110111101111111110100011111111111110100111111111111110000000000000001000111111111100001111111111110001001111111111001110111111111110111100000000001011100000000000001110000000000001000000000000000001111111111111111110
0000000000100110111111111011100111111111111001110000000000001110111111111110111111111111111111011111111111011010000000000010010000000000001001000000000000000000000000000000100011111111110011100000000000001111000000000100001000000000000100001111111111011001111111111110111000000000001011000000000000110011000000000011110111111111110101110000000000010011000000000001101111111111111011110000000000110101
1111111111111110111111111101001100000000000100000000000000101100111111111110111011111111110110111111111110101100111111111110010011111111111110010000000000001000111111111111101111111111111001010000000000110001000000000000100000000000000100011111111111010000000000000000100100000000001001011111111111110100000000000000110111111111101100110000000000010010000000000010100011111111111111100000000000000100
1111111111001000000000000001101000000000000011111111111111110011000000000001110111111111101101100000000000101100000000000011000100000000000010100000000000110000111111111100011111111111110110011111111111011000000000000011101100000000010110111111111110100111111111111101000111111111111110100000000000111010000000000100101111111111111010101111111111111101111111111111111100000000001000100000000001000011
0000000000000101111111111001001100000000000100000000000000110011000000000101100011111111110110111111111111001001111111111110110000000000000000000000000010001110111111111110011111111111111100101111111111101011000000000001011100000000001111001111111111111100111111111111001100000000000100001111111111001010000000000001110011111111111100011111111111100010111111111110111011111111111010000000000000011001
1111111110001001111111111100101011111111110111001111111111010010111111111110010100000000000101010000000000001000111111111111101000000000000110110000000000100001111111111111011011111111110011111111111111100110111111111110001111111111110111011111111111101011111111111110001011111111101011011111111111001101111111111110001000000000000101001111111111100110111111111111000011111111111100011111111111100001
1111111110101100111111111011010011111111110110110000000000000110000000000011001111111111111100001111111111011001111111111100110011111111100011010000000000011101000000000011000100000000000110001111111111010110111111111100111011111111111010001111111111111011111111111000111111111111111001001111111111001010111111111100010111111111111010010000000000010001000000000101111000000000000100001111111111111100