1111111111111010111111111101010000000000010011100000000000010001111111111100110011111111111111110000000000111000000000000100100000000000000111001111111111110010111111111101010000000000010011000000000000111001000000000100000100000000000101011111111111000000111111111010011100000000000010110000000000011010111111111111101111111111100000101111111110111111000000000011011000000000000100111111111111100010
1111111110001100000000000010010000000000011000010000000000111100111111111111110111111111110011100000000000011111000000000010101100000000001001010000000001000111000000000010110000000000000000001111111111101010111111111101101011111111111010111111111111110101000000000001001111111111111011111111111110101100111111111011000100000000001100111111111111100010111111111100010111111111111011100000000000011100
1111111111100010111111111111011100000000000100010000000000001110000000000000110111111111110111000000000000011111111111111111001011111111110110101111111111010101111111111001101000000000000000010000000000010011111111111001011011111111101000010000000000011101000000000011110011111111111110101111111111001110000000000001111100000000001001010000000000100000111111111111001100000000001001100000000001000011
1111111110000000111111111110010000000000000100101111111111111001111111111100101111111111101111000000000000001101000000000001001111111111100011101111111110011000111111111101101011111111110000011111111111110101111111110110011111111111000011011111111111010010000000000010000111111111100000101111111110001110111111111010101100000000011011110000000001010001111111111101001111111111110011010000000000110011
0000000000010010000000000001110100000000000001011111111111101111111111111111111100000000000110010000000000010011111111111111000111111111100111011111111111100111111111111110101000000000000001010000000000000011000000000001110000000000000111111111111110110011111111111010101011111111110111000000000001000010000000000000101111111111110101010000000000001100000000000001110100000000010101100000000000000000
0000000000001000000000000001111011111111111010111111111110111001111111111111011111111111111100100000000000001010000000000010110111111111110000001111111110111000000000000010011000000000000010010000000000011100000000000010110100000000001101000000000000100011000000000000010100000000001011000000000000100110000000000010001011111111110111100000000000001111000000000011110000000000000101111111111111111010
1111111111111000111111111111110100000000000100010000000000101100000000000000001111111111110101111111111111101010000000000011100000000000010001000000000000000010000000000001000011111111111010110000000001000001000000000010110011111111110111000000000000001101111111111100110100000000000110100000000000000010111111111110000100000000011000010000000000100101000000000000011000000000000000100000000000011100
1111111111101111111111111110101111111111110111110000000000100000000000000000100100000000000010101111111111001001111111111110111011111111110110010000000000011110111111111111111100000000000110001111111111110000000000000000001011111111111100110000000000100000000000000010111000000000000001001111111111101000000000000000001000000000000010100000000000010110111111111111000011111111111010001111111111111101
0000000000000110111111111111000111111111111100100000000001000001000000000000000111111111111010011111111111010010111111111101000011111111111101011111111111011001000000000000000100000000000110010000000000110101111111111111100111111111110101011111111111101101000000000010000000000000000111111111111111111010111111111111011100000000000100000000000000100011000000000010100100000000000001010000000000101110
0000000000001101000000000001100000000000000101110000000000101001000000000001111100000000000110000000000000001100111111111111111000000000010100010000000001110110000000000000100111111111111010001111111111001001111111111110110000000000001100010000000000110011111111111110010011111111111101010000000000100101000000000100100111111111111101011111111111111100000000000000101011111111111110001111111111101011
1111111110111010000000000000000000000000001001011111111111001110000000000101000100000000000101110000000001001000000000000010011011111111101111111111111110111110111111111110100011111111111111100000000000110000000000000000001011111111101100001111111110111011000000000001001100000000001000110000000000000000111111111101010111111111101001010000000000000111000000000000100000000000000000111111111111101001
1111111111011111000000000010001000000000000100000000000000010100000000000010000100000000000001000000000000011011111111111101001111111111110000000000000000001010111111111000011011111111101000011111111110101010111111111010001011111111111000011111111111001011111111111101000111111111110101101111111110111001000000000000101011111111110100101111111111011001111111111111001000000000001000000000000000001110
1111111111110010000000000000010000000000000011101111111111101100111111111110111111111111110101010000000000010110000000000010100111111111101010010000000000001011111111111101110111111111110110010000000000001010000000000010001100000000010111100000000000000001111111111101101000000000001100000000000000101010000000000001111000000000000001001111111111110001000000000010010000000000001101100000000001000110
1111111111110010000000000000101111111111111100111111111111110001000000000011000000000000001010001111111111110111000000000011010011111111111010000000000001100001000000000011010000000000001010110000000000000001111111111111110000000000001000101111111111111110000000000000010011111111111100010000000000100001000000000010111011111111111100000000000000000100111111111111001011111111110110100000000000000101
1111111110010100111111111110101000000000001100010000000000111000000000000001011011111111110111111111111111111110111111111111100111111111111111100000000001000001111111111111000011111111111010000000000000101111000000000011011000000000000001011111111111110101000000000000111100000000001101011111111111111100111111111111011100000000000011100000000000010011000000000001000100000000000010100000000001000100
1111111111101110000000000001011000000000000010011111111111010001111111111101000111111111101111001111111111011010000000000011100000000000000110001111111111111000111111111110111011111111111011100000000000111001000000000110000100000000000111000000000001000101000000000010100100000000010011000000000000011011000000000001100100000000000100110000000000100110000000000010000000000000000001110000000000010001