0000000000010100111111110101110011111111110110001111111110101110111111111111100111111111110011101111111111110111000000000000101011111111111001010000000000000111111111111110111111111111111110101111111111001010111111111111111000000000000101101111111111100101111111111011001011111111111110111111111110110101111111111101011011111111111011110000000000000011000000000011001111111111111100011111111111001000
0000000001111110000000000011101111111111110111011111111111110110000000000011000000000000000010010000000000001010111111111111110100000000000010000000000000111111000000000000111100000000000110010000000000011100000000000010010011111111111100110000000000101000000000000001000111111111111011100000000000001110000000000001011011111111111001001111111111010000000000000001101000000000000101111111111111100111
1111111111101101000000000000000000000000000011010000000000001001000000000011010100000000000111001111111111110010000000000000111100000000001000100000000000100110000000000001101111111111101000111111111111100110000000000000111000000000000000101111111111111111111111111110000011111111110100111111111111111000111111111111110000000000010001101111111111111011111111111011100011111111011011111111111101010110
1111111111110111111111111001100111111111110100000000000000000001000000000011001111111111110110100000000000010100111111111100010100000000001111100000000000001001000000000010110011111111111000011111111111011110111111111101101111111111110110001111111111101000111111111110000100000000001000100000000000010010000000000010000011111111111011110000000000111101000000000100011111111111111101111111111110111110
1111111111011101111111111101010011111111101100101111111101110010111111111011000100000000000001000000000000000101111111111101100111111111101011001111111111000001000000000000011111111111110010100000000000101101111111111101101111111111111011011111111111100100000000000001011000000000001011000000000001000100000000000000101011111111111101010000000001110110000000000011001100000000010100101111111111111101
0000000000011100111111111111001111111111111100000000000000011000000000000000000000000000000000001111111111010001000000000010011011111111111111100000000000110011111111111101001111111111110010001111111111001100111111111110001000000000000001100000000000000001111111110111110011111111100000111111111110011011111111111110100111111111101110111111111110100110111111111100111011111111110010110000000000001010
0000000000000001000000000000010100000000000110010000000000011001111111111101110111111111111001111111111111111011000000000001001100000000010010000000000000010000000000000010110111111111111101110000000000000110000000000100000000000000000010010000000000011100111111111111100111111111111001010000000000011110000000000000000011111111101110110000000000000010111111111111011111111111111110101111111111010110
0000000000010110000000000010000000000000000000011111111111101010111111111110001100000000000100110000000000010101111111111111001000000000000001000000000000101011000000000011000100000000000011101111111110111111000000000001010100000000000101000000000000000110000000000000101111111111111011110000000001010111000000000101011011111111101010011111111101111011111111111011100000000000000010111111111111010110
0000000000011100000000000000011100000000000011100000000000100100000000000011110000000000001110000000000000100110111111111100110011111111111111000000000000101100111111111111111111111111110110110000000000011100000000000001010000000000001101111111111111101010111111111111101100000000000000111111111111010010111111111110000000000000000111111111111111000110111111111000010111111111011100011111111101101101
0000000000100010000000000000000011111111111111010000000000010011111111111011001000000000000011110000000000000010000000000010011000000000000110010000000000000110000000000001011000000000000000110000000000001000000000000000000111111111110011000000000000000100111111111111011111111111111100101111111111010001111111111111011111111111100000101111111101100101111111111110110111111111110001101111111111010111
1111111111001100111111110011101011111111100110100000000000011001111111111101011011111111100111001111111111100010111111111100111011111111111100010000000000000000111111111111000000000000000010011111111111010100000000000000011000000000001110000000000000011111111111111100001000000000000011100000000000010101000000000010101111111111110110110000000000011000000000000010110111111111111100111111111111101100
0000000000000010111111111111011011111111111100010000000000101000000000000010101011111111110111011111111111111110000000000001010011111111110010111111111111011001111111111110111100000000000001000000000000110011000000000000011011111111100111011111111111100101000000000000010000000000000010101111111111001011111111111111110100000000000111100000000000001111000000000001000111111111111001110000000000000011
0000000000011111000000000000010000000000000010010000000000011111111111111101111011111111111110011111111111111001000000000001100000000000000011111111111111001000111111111110011011111111110110010000000000110100000000000100010100000000000110101111111111111110000000000011101100000000000100101111111111110101111111111100110100000000000111110000000001001011111111111111101111111111110101011111111111011010
0000000000111110000000000010110000000000000011100000000000100111111111111101010011111111111100100000000000001111000000000000001100000000001100000000000000010111000000000000001011111111111011111111111111110111111111111001010011111111110111101111111111110011111111111100100011111111110001001111111111101000000000000001100011111111100011111111111101111010111111111110001100000000000001010000000000011111
1111111111110111000000000001010000000000000110100000000001000101000000000000010111111111111000000000000000011111000000000010100000000000000111011111111111111100000000000000001000000000000001011111111111101010111111111111010011111111101111100000000000100011000000000010100011111111111110110000000000000011111111111101101111111111101100101111111110101101111111111101000111111111110110101111111110010001
1111111111110110000000000001001100000000000100100000000000110001000000000010000100000000001001100000000000101111000000000000100100000000000001010000000000010000000000000101000000000000001010101111111111101110000000000001100100000000001111111111111111110101111111111111000111111111111010011111111111101101000000000000000111111111110110011111111110101100111111111010001011111111010011101111111100101110