1111111111111100111111111111011011111111110110101111111111101011111111111111001111111111111101101111111111111001111111111101111011111111111000011111111111011111000000000001011000000000000110100000000000011001111111111110111111111111111011011111111111101011000000000010010100000000011001010000000000110111111111111111000111111111111110001111111111000111000000000011100000000000010001000000000000110110
0000000000010100111111111111011000000000000111000000000000000111000000000000000100000000000011101111111111110001000000000001000000000000000100100000000000100111111111111100011100000000000101000000000001000011000000000001010111111111111100001111111111010101111111111110001100000000011001000000000001001001000000000000011011111111110100101111111110111000111111111111101100000000010100100000000000110011
0000000000111100000000000001000100000000000101000000000000111000111111111110110011111111110011100000000000001100000000000011101100000000001101101111111111011100111111111101011011111111110010100000000000100111000000000001101000000000001000101111111110110110111111110110100111111111011000101111111111101101000000000010010011111111110100111111111110100000111111111011011011111111111001100000000000001011
0000000000010100111111111111001111111111111010000000000000011111111111111111011011111111110111101111111111111011000000000010001011111111111101001111111111110110111111111110011000000000000001111111111111111100111111111110110011111111111010101111111111110010000000000010011011111111111111101111111111010011000000000000011011111111110000101111111111111010000000000000111011111111101111111111111110011111
1111111111100010000000000010111111111111110110111111111111101100000000000000000111111111111100000000000000001010000000000001111111111111111001111111111111010100111111111111101111111111110010100000000000000000000000000000001111111111110010000000000000110001111111111100110111111111011011101111111110100101111111111011000000000000000100001111111111110101111111110111001011111111101011111111111110111101
1111111111111010111111111110111000000000000000010000000000100100000000000001000111111111111010100000000000001110111111111111010011111111110101000000000000010010111111111100110011111111110111101111111111011011000000000000000111111111111101111111111101111010111111110111001111111111110001000000000000100000000000000001111100000000000110100000000000010100111111111101011011111111100000001111111111011110