1111111111011000000000000000001011111111111110111111111111101111111111111111011011111111111110000000000000011010000000000000111011111111101101101111111111010011111111111100110011111111111110110000000000011001111111111110011011111111011111111111111111100101111111111101011100000000000110100000000000011110111111111011111111111111110111001111111111110000111111111111110100000000000000110000000000000100
1111111111110111000000000000110111111111111100001111111101111110111111111011100111111111111010000000000000111000000000000110110011111111111110111111111101101010111111111001100111111111111011010000000001100100000000000011011011111111110100011111111110010110111111111000101000000000001000000000000001010110111111111110110111111111110110111111111111001010111111111111101000000000001100010000000000001001
1111111111001100111111111011011100000000001011110000000000001110111111111100010111111111111001111111111110100111000000000011000100000000001111110000000000000001000000000000011111111111110000101111111111111111000000000010110000000000001000111111111111011110111111111110010111111111110110000000000000011010000000000001000111111111111001001111111111111001111111111111111100000000000101111111111111111001
1111111111101111111111111110100000000000000000001111111111100100000000000001001111111111111111101111111111111000111111111101010011111111110011111111111111111001000000000000101100000000000001101111111111100101111111111010101111111111111100101111111111111110000000000010100100000000000110011111111110100101111111111111001011111111111011000000000000001010000000000010011011111111110110101111111111011001
1111111111000000000000000000001000000000000111001111111111101110111111111110000111111111111001111111111111000100111111111110000000000000010000101111111111111100111111111111110011111111110010001111111110111001000000000011001100000000000000110000000000011000111111111111000111111111101001000000000000011000000000000001100011111111110101111111111110111010111111111010001011111111110110000000000000001111
1111111111011110000000000000111100000000000000010000000000000011111111111101110000000000000101111111111111101111000000000010101000000000001101110000000000000011000000000010010111111111111010111111111111110001000000000001101000000000001110000000000000001010000000000000110011111111111001001111111110111011000000000011110111111111111101110000000000000100111111111111011011111111101000111111111111110010