1111111111000111000000000000100000000000000110110000000000101101000000000010000011111111111010011111111111100001111111111101110111111111110001101111111111111110111111111010010011111111111011010000000000010001111111111101001111111111111001001111111111100000111111111010110100000000000011010000000000010010000000000001110000000000011101100000000000100101000000000001110000000000000101010000000000001000
0000000000101000000000000010101011111111111111011111111111110001111111111100000011111111111011011111111111111110000000000010010000000000001000101111111111010100000000000010100011111111111101011111111111101001000000000001100100000000001111111111111111010111000000000001100100000000000110001111111111111000000000000011111000000000000010010000000000000110000000000000100111111111110101100000000000000010
1111111111001001111111111111110000000000001010110000000000010000111111111100001111111111111111100000000000000011000000000001001011111111111111001111111111111001000000000101101100000000010011110000000001100001111111111111101000000000001000100000000000100110000000000100101000000000000001011111111111110101111111111101100000000000001010111111111111101000000000000000010011111111110110011111111111101001
0000000000010110000000000001101111111111110110001111111111101100111111111001101100000000000110101111111111111001111111111100111011111111110010010000000000100100000000000000011011111111101010011111111111001001000000000010010100000000010001111111111111010101111111111111011100000000000101100000000000111001111111111101101011111111111010111111111111010111000000000001111000000000001100011111111111011101
0000000000110011000000000010001011111111111010001111111110010010111111111010111011111111111101000000000000000000000000000000111111111111110101000000000000000010000000000000100111111111111011111111111111001001111111111100101100000000000111000000000001001010111111111100011011111111101001010000000000000100111111111110110000000000000110001111111111000011111111110111001111111111111101111111111110011101
1111111110001011111111111100100011111111111001000000000000101100000000000000010011111111110111101111111111110111000000000001000100000000001000100000000000010011111111111101110100000000001101100000000000101000111111111100110111111111111001011111111111000011000000000011000011111111110111101111111111011110111111111110110111111111111110110000000000100111000000000000000000000000010011101111111111110010
0000000000000110111111111111111000000000000100100000000000001100000000000000010000000000000111101111111111101000111111111100001111111111110110110000000000110101111111111111100000000000001100011111111111111000111111111110111111111111111011010000000000010111000000000000011011111111110101001111111111111000000000000011010000000000000110101111111111110100111111111110010011111111110101100000000000111111
1111111111100100111111111111000000000000001010111111111111110101000000000000101100000000000001100000000000001100111111111110001111111111111000011111111111100110000000000111111000000000001010101111111111101010111111111010111111111111110110110000000000010000000000000000010111111111101111111111111111110000111111111111010111111111110110110000000000001100111111111111011000000000001000101111111111111001
1111111111111110111111111110011100000000000100100000000000100110000000000000110000000000000100010000000000110011000000000001110011111111111000100000000000101010000000000011011100000000001011110000000000011010000000000010000111111111111100000000000001111001000000000001110111111111111000010000000000011100111111111111100000000000000010111111111111100100000000000011110100000000000001110000000000001111
1111111111001100000000000000010000000000000011011111111111101111000000000001111011111111111111111111111111110110111111111111111011111111111100011111111111100010111111111101101011111111111001001111111111101000000000000010001000000000001110101111111111100000111111111111111111111111111011100000000000100111000000000011111100000000000111100000000000001111111111111101000100000000000000000000000000010011
1111111111111011111111111111001111111111101000101111111111010100111111111101011000000000000001010000000000010001111111111100101111111111111100010000000000111000111111111101000111111111110101011111111111101000000000000000000000000000000101111111111111100001111111111110100011111111111111111111111111100110111111111100000000000000010011000000000000110100000000000010100011111111111100011111111111010110
1111111111110010000000000011011011111111111101011111111111011110111111111111011111111111111101110000000000001111111111111101101111111111111011001111111111001100111111111101000011111111110101011111111111001000000000000010110000000000010001010000000000001000000000000010011000000000000110100000000000101001111111111101110000000000001011101111111111111100111111111111101011111111111110101111111111000111
1111111111100011111111111100001111111111111011100000000000111101000000000011101111111111110001011111111111011011111111111110111100000000001100000000000000101110000000000100011000000000000110011111111111001110000000000001011111111111101001110000000000010011111111111011001111111111111111011111111111101001000000000010111111111111111101101111111111011011000000000000000000000000000111010000000000010001
1111111110100101111111111100100111111111110101110000000000001111111111111111111111111111111100001111111111101111111111111101001011111111110000111111111110101111111111111110110111111111111100101111111111110110111111111110001111111111111111111111111111101000111111111111101111111111111101000000000000111101111111111111100100000000000101000000000000000011111111111101110100000000010011000000000000001111
1111111111101101111111111110011100000000001010010000000000110110000000000000011000000000000001001111111111110100111111111111000000000000000110110000000000110010000000000010111000000000001101011111111111111000111111111111111000000000000110001111111111001110111111111110010111111111111100110000000000011110000000000011110100000000000111000000000000000111000000000001000011111111111010001111111111101010
1111111111101011000000000001000111111111111100001111111111111001000000000010001100000000001010000000000000000101000000000000011111111111111101001111111111100101000000000011000100000000001110010000000000110000111111111101111111111111101000100000000000100010000000000011011100000000000101001111111111000000111111111011101011111111111000011111111111100000111111111011011000000000001100000000000001010000