0000000000001100000000000000110011111111111110011111111111100100111111111010100111111111111100101111111111011110111111111100011111111111110011111111111111001110111111111011111011111111101001011111111111100101000000000001000100000000000101110000000000011011000000000010100000000000000100001111111111111110000000000000100000000000000011000000000000001110111111111111100100000000000110010000000000100000
1111111111110101000000000000000011111111111100111111111111010101111111111011111111111111111011101111111111011110000000000001111100000000001011010000000000011100000000000000001100000000000010111111111111110010000000000001101000000000001010100000000000010010000000000001011111111111111001110000000000001000000000000000010011111111110101001111111111111001111111111101110111111111110111011111111111100001
1111111111101100111111111101110011111111110111101111111111110000111111111011110111111111101011011111111111111001111111111010111011111111110001011111111111011001111111111111001111111111110001110000000000011011000000000010001111111111111100010000000000011011000000000100010000000000001110110000000000011101111111111100100000000000001100100000000000011110111111111110011100000000000010110000000000100011
1111111110111101111111111110100111111111111111111111111111010001111111111011010111111111110001001111111110110010111111111101001111111111111100111111111111011100111111111101001100000000000000100000000000101101000000000010011111111111101111100000000000101111000000000100101100000000001110011111111110101010111111111010000000000000001011011111111111111111111111111011111111111111111010011111111111110101
0000000000100011000000000000101000000000000110100000000000011001000000000001111100000000000010100000000000000000111111111111111111111111110100011111111111001101111111111100000011111111110100001111111111010001111111111100001111111111111010001111111101001011111111111100111100000000000001110000000000001010111111111111110011111111101100000000000000011000000000000001010000000000000000010000000000100000
1111111110111101111111111110101100000000000100001111111111111011111111111111010111111111101101001111111111101001000000000000111100000000000101110000000000100011000000000010011000000000001010110000000000100011111111111100110011111111101100110000000000011110000000000000011111111111111101111111111110101001111111111110010111111111101011011111111110010001111111111111001111111111110101111111111111001111