1111111110111000111111111111001000000000000010101111111110111000000000000001010100000000000110100000000000101001000000000001101011111111111010010000000000011010000000000100101011111111111111001111111110011111111111111011010011111111111010111111111111101100000000000001110011111111110011101111111110001011111111111010110000000000011010100000000000001100111111111011000011111111010101011111111110000111
0000000000110001000000000001010000000000000001111111111110110001111111111110101111111111111101100000000000010110111111111101001011111111101001111111111111000110111111111111110000000000000001101111111111111011000000000000101100000000000100001111111110111101111111111111001111111111111001111111111111111000111111111111110011111111111101000000000000000111000000000001110000000000001010000000000000001011
1111111111110101000000000000001100000000000101100000000000000000000000000100000100000000001011111111111111110011111111111100111011111111110001101111111110011111000000000001010011111111111000011111111110111110111111111011011011111111111100101111111111110110111111111110111011111111111010000000000000011101000000000001001000000000001110110000000000101111111111111111101011111111111100111111111111100011
1111111111111110000000000000001011111111110110111111111111011001000000000000111100000000000101111111111111011110000000000010010100000000000000001111111111001000000000000000100000000000001110110000000000100010000000000010011000000000001101100000000000110101000000000000010100000000011000110000000000001001000000000011000011111111110101110000000000110001000000000011000100000000001010100000000000011110
1111111111100100111111111111110111111111111010101111111111001001111111111000110000000000000000010000000000000110111111111110111000000000000000110000000000000110000000000010101111111111110101100000000000100011000000000101000000000000001110010000000000011001111111111111000100000000001101100000000000110001000000000001001000000000011001000000000000011000000000000010010100000000000111100000000000000100
0000000000100000111111111101000100000000001011110000000000010101000000000010101100000000000110111111111111100110111111111111100000000000000011000000000000110100111111111111100011111111101101001111111110101000111111111011010111111111111010100000000000000100111111111100110111111111100000001111111101100110111111111010100011111111111100010000000000100000111111111010110011111111101101101111111111001001
1111111111101111111111111110001111111111111100000000000000100011000000000001101111111111111000111111111111110111111111111111010100000000000011010000000000100100111111111110110111111111111010011111111110110011111111111100101111111111011110101111111111001111000000000001111100000000000101100000000000101010111111111110000011111111110111111111111111110101000000000010101000000000001010100000000000100000
1111111111110111111111111110101011111111101101101111111110101001111111111101011100000000001010110000000000010010111111111110000011111111101100011111111111000101000000000011000000000000000111111111111111001111000000000001100111111111111011010000000000110110000000000000111100000000000010111111111111101100000000000111001011111111110001110000000000000010000000000000001011111111111100110000000000110110
0000000000001000000000000001011100000000000010011111111111100110111111111110100100000000001000110000000000110100111111111100101011111111101110011111111110111101111111111110110011111111110101011111111110111011111111111011101111111111110010110000000000101100000000000000100111111111111101101111111111111111000000000001000100000000001110100000000000001110111111111110110111111111111001000000000000000101
1111111111110111111111111111010111111111111111110000000000011101000000000001111011111111101011101111111110110100111111111110111000000000000110010000000000110001111111111111111011111111110111011111111110110011111111111110111111111111111111010000000000100011000000000010000011111111111010000000000000011110000000000000110011111111111111100000000000001111000000000001011011111111111111111111111111100010
1111111111001111111111111011000111111111101011001111111110101010111111111111111111111111111111110000000000001001111111111110111011111111111000000000000000010100000000000011011000000000001000100000000000001001000000000000111100000000010001010000000001011101000000000000110111111111111001101111111111100111000000000010111000000000000111111111111111111010111111111100000111111111110011001111111111100000
1111111111010111000000000010010011111111111000110000000000010101000000000011000000000000000001000000000000110100000000000001001011111111100100100000000000110101000000000011001100000000000100110000000000000000111111111001010111111111110110110000000000010001000000000001111100000000000111110000000000100000000000000100000000000000001100100000000001000010000000000001101100000000000110011111111111011011
1111111111001011000000000001101000000000000111111111111111101000111111111100101011111111111111000000000000011010000000000010011100000000001010000000000001011100111111111101010100000000000000000000000000000110000000000011100100000000001110001111111111101001000000000001101011111111100100111111111111101110111111111110001000000000000010011111111111111110111111111101111011111111100110010000000000100101
1111111111001100111111111101010100000000000100100000000001000110000000001010001111111111111110111111111110110100111111111100111000000000000011010000000001001100000000000000111111111111101000111111111111000101111111111110101111111111111111110000000000010011111111111111100011111111111101001111111111101100000000000000110011111111111100100000000000001010111111111110001100000000000111111111111111110010
1111111111101011111111111110111111111111110110111111111111111100000000000001001100000000000011001111111111101011111111111100110111111111110101010000000000011110111111111100111111111111111110111111111110100011111111111001110111111111101111100000000000001001111111111111101111111111111001111111111111111010000000000000000100000000000110010000000000010110000000000010011100000000000100010000000000111100
0000000000100010000000000001111100000000000010111111111111111000000000000001100100000000001101110000000000000101111111111110011011111111110111101111111111011101111111111110011100000000000000100000000000010001111111111101001011111111100011001111111110111001000000000000111000000000001101010000000000100111111111111101110011111111101101001111111111110000000000000010111000000000000110101111111111111010