1111111111000110111111111001011111111111101101011111111111111010000000000000110100000000001011000000000000001110111111111111110111111111101111010000000000010100000000000100010000000000001000010000000000001010111111111011100111111111110101110000000000100011111111111111100011111111110111110000000000010000000000000010001111111111111101101111111111101111111111111110111011111111111101010000000000100101
1111111111110111000000000001001000000000001000111111111111101100111111111111010011111111110100111111111111100010111111111101101100000000000011101111111110101100111111111001111111111111101111111111111111100101111111111110001111111111111101011111111110000100111111111011110100000000000010110000000000000000000000000001101011111111110100010000000000010001000000000001100111111111110111101111111111010010
0000000000101100000000000001001000000000000111001111111111101101111111111100101100000000001101001111111111010101111111111111001100000000000110111111111111100001000000000010000011111111100110101111111111001111000000000001110000000000001000001111111111000011111111111111111100000000000110011111111111101111111111111101110011111111111001111111111110101101111111111000110111111111111111010000000000100110
0000000000110110000000000000011011111111111001001111111111111001111111111001000100000000001010011111111111011111000000000000111000000000000011111111111110000001111111111101110111111111110011100000000000101011000000000010011100000000001001001111111110100000111111111010111000000000001100000000000000110000111111111111111111111111110111011111111111100011111111111110001111111111111110000000000000001000
0000000000010001000000000001000111111111110110001111111110101001111111111011110111111111111110100000000000010001111111111011111111111111101001111111111111011101111111111101000111111111111000111111111111110011111111111011101100000000000111111111111111100100111111111111010111111111110010000000000000000111111111111111111111111111111110001111111111100011111111111011011000000000000001000000000000010101
1111111111001010111111111001011100000000000010101111111111111011111111111111010100000000000110111111111111010101111111111111010000000000000111110000000000010011000000000001100100000000001011010000000000110010111111111110000011111111110001100000000000010010000000000010000011111111111011011111111111110000111111111110101100000000000001010000000000001010000000000000001011111111111000010000000000010001
0000000000101100000000000010101011111111111011011111111111110101111111111110010011111111111100000000000000010001111111111111010011111111111100011111111111111110111111111011110000000000001100110000000000000110111111111101001011111111111001011111111111110100000000000001111100000000000111011111111111111000111111110111011111111111110100001111111111100001111111111110100111111111110111001111111110110110
1111111111101101000000000010010011111111111101111111111111010011111111111110011011111111111100001111111111001111111111111101111100000000000101001111111111111011111111111101000011111111111000010000000000001100111111111110111011111111111111011111111111001111111111111011110011111111111100110000000000000010111111111111010111111111111101101111111111110110000000000001111000000000000111101111111111101100
1111111111010000000000000010000100000000000110101111111111111101111111111110001100000000010010000000000001100001000000000000110011111111111001101111111111111011000000000100101011111111111111001111111111111101000000000011000000000000000011010000000000001011000000000000101000000000000010111111111111110110111111111001001011111111111111011111111111000010111111111101111000000000001100010000000000100111
1111111111100000111111111110011111111111111011110000000000011111000000000010010011111111111111101111111111011010000000000010000100000000000010000000000000000100111111111110000100000000000011000000000001001101111111111111011011111111111000101111111111011000000000000001011000000000001010101111111111011110111111111111110111111111101101101111111111101101000000000000101011111111111001111111111111001111
1111111111101000111111111101001011111111110100101111111111001011111111111000011000000000001100110000000000000011111111111111000011111111101101001111111111000111000000000000101111111111111000010000000000000100111111111101011011111111110100101111111111100011111111111011111100000000001011111111111111110101111111111110100111111111101111011111111111010110111111111111110011111111111011100000000000000001
0000000000100110000000000010001000000000000111001111111111001010111111111011011100000000000001110000000000001011111111111110101111111111110111001111111111011110111111111111111011111111111010101111111111101100111111111101010100000000000111101111111111100001111111111011101100000000000001100000000000001000000000000001010011111111110001011111111111100101111111111100011011111111110101000000000001010001
1111111111101100000000000000101011111111100111111111111110001100111111111010001111111111110110101111111111101100111111111110101111111111111011000000000000101010111111111111010000000000011010101111111110111100000000000000011100000000000010000000000000110101000000000010001011111111110001101111111111010000111111111111000000000000000111001111111111111100111111111101000100000000001011011111111111100011
1111111111110000111111111100100100000000000001101111111111111100000000000011110000000000001011110000000000110101000000000010110011111111111101101111111111110010000000000000010000000000000100111111111111110000111111111100110100000000000100010000000000011000000000000000110111111111111000111111111111000100111111111110100011111111111101010000000000101001000000000011011000000000000011001111111111111100
1111111111100110000000000011011100000000001000010000000000010000000000000001110011111111111100101111111111101001111111111110010100000000000101001111111111111110000000000000110100000000000111010000000000000100111111111101000111111111111010111111111111011010111111111101111100000000000011010000000000010110111111111100010111111111111111010000000000010101111111111111011100000000000010001111111110111110
1111111111111110111111111111101100000000000110110000000000010100111111111111011111111111110111111111111111011001000000000010110100000000000000010000000000001101111111110110111111111111111101001111111111101010000000000010010111111111111101001111111110010101111111111110100111111111111011111111111110111100111111111111011011111111100101111111111111100001111111111111011100000000000010101111111111100001