1111111111001010111111111110000111111111110101000000000000111011000000000010010011111111111110000000000000110011000000000100011000000000011010101111111111100010000000000000000000000000001011010000000001011111111111111111000011111111101010001111111111110010000000000110100000000000000100001111111110110011111111110111010000000000000100100000000000011101000000000010011111111111101011101111111111000010