0000000001000100111111111111011100000000000110110000000000111100111111111110100011111111110110000000000000010100111111111100110100000000000101101111111111110110000000000011001000000000000110101111111111100101111111111111010000000000000010100000000000100111111111111010010011111111111001011111111111010101111111111101101000000000000001101111111111110001111111111100100111111111110010011111111111110110
0000000000110100111111111100000011111111101001001111111111110111111111111110001000000000001100011111111111011100000000000000111111111111111100011111111111101000000000000100011011111111111110111111111111111010111111111111111111111111110111010000000000001011000000000000111011111111111011110000000000001010000000000100010011111111110100010000000000010000000000000000010100000000001101000000000001000010
0000000000100011111111111111000011111111111100010000000000000010111111111001101100000000001011000000000000011110111111111110111100000000000111100000000000010001111111111011011100000000000101000000000001010010000000000010000111111111101101101111111111010101111111111101110111111111111100011111111111111010000000000001000000000000000010000000000001010000000000000001010000000000001000111111111111101110
1111111111101000111111111111110111111111111110111111111111111111111111111100101100000000001001110000000000001001000000000011011000000000001101111111111111110000000000000100100111111111111010110000000000100110000000000001000111111111100111100000000000110001000000000001101100000000000101101111111111111110000000000010011100000000000001101111111111011111111111111010011111111111111111011111111111111100
1111111111111000111111111001111111111111101111010000000000011111000000000000000111111111111011110000000000101011000000000100000011111111110100010000000000000101111111111100100000000000011011010000000000100010111111111111111111111111110001001111111111111110000000000100010111111111111000011111111111010111111111111111001100000000001101100000000000010001000000000010101011111111111100001111111111110110
1111111111010011000000000001111100000000001110100000000000110101111111111111111011111111110111100000000000000110000000000010110000000000000111001111111111110001111111111101110111111111111110110000000000001100000000000010000000000000001001000000000000011110111111111110000100000000001100101111111111111111111111111100011100000000000111011111111111000111111111111101110011111111111101111111111111011111
1111111110100110111111111100000111111111111011001111111111010111000000000000000100000000000101001111111111110111111111111100001000000000001001000000000000000011111111111101101111111111110110011111111111011010000000000010101100000000010011111111111111001101111111111110010100000000000011010000000000101101111111111100101011111111111100111111111111111011000000000010001111111111111101101111111111001000
0000000000010000000000000011010000000000001111000000000000101111111111111110101111111111111000110000000000111001000000000010011000000000000011110000000000011000111111111111100111111111111011011111111111110111111111111101101011111111111000001111111111100000000000000000111100000000000110000000000000000001111111111110110000000000000100110000000000100110000000000101011100000000001000010000000000000010
0000000000110010111111111101011111111111111110011111111111101000111111111100000100000000000101111111111111100111111111111101111100000000001010110000000010001001000000000001010111111111111100000000000000010011000000000000111000000000000010010000000000101101111111111111101000000000000000101111111111110011000000000010000000000000000101110000000000010000111111111111110111111111111101010000000000001000
1111111110111000111111111010110111111111101110111111111111100011111111111010110000000000001101111111111111000011000000000001001011111111111100001111111111100001111111111010000011111111111000010000000000011111000000000000111000000000001000101111111111100100000000000000111000000000010001010000000001011110000000000001000011111111111010001111111111010111000000000000111000000000000011011111111111111001
0000000000011110111111111111101000000000001110000000000000001111111111111110010100000000010000010000000000010010111111111111111000000000001000100000000000001110000000000011110011111111111001011111111111010110111111111111011000000000000000110000000000111110111111111100110100000000000011001111111111010000111111111111100011111111111110001111111111010010111111111100000011111111110111011111111111011001
0000000000000011111111111010110011111111101000111111111110110010111111111100111111111111111100001111111111010111000000000000110100000000000101100000000000011001000000000000011100000000000000010000000001010110000000000011010000000000001000111111111111100110000000000000010100000000000010110000000000000011000000000010101011111111111101111111111111111000000000000000101100000000000011101111111111111001
0000000000100001000000000100000100000000010010110000000000101011111111111111010011111111111000011111111111011111000000000001111011111111111110010000000000001000111111111101110111111111110001000000000000001100111111111111101100000000001000011111111111001100111111111100101000000000001001011111111111011110000000000000111111111111111011111111111111101011000000000100000100000000001000101111111111100011
1111111111000110111111111100110011111111111100011111111111111111000000000000101011111111101011011111111111100000000000000000111000000000000101010000000000001100111111111101100100000000000100010000000000100111000000000001110100000000001000111111111111100011111111111111110100000000010110010000000000111001111111111111011111111111111101011111111111001001111111111101111011111111111000101111111110010100
1111111111110101000000000000010011111111111101001111111111011001111111111011101100000000010000001111111111110000111111111110100111111111110000101111111110110111111111111010000111111111101000101111111111111000000000000001101100000000001101101111111110110111111111111101101000000000000111100000000000011000000000000000011011111111110011001111111111100111000000000000011100000000001010000000000000000111
0000000000000110111111111110000000000000000001110000000000000110111111111110000111111111111001001111111111110011000000000000011000000000000011000000000000110001000000000000110111111111111011010000000000011011000000000000100100000000001001100000000000010000000000000101000000000000001010110000000000111001000000000001001100000000001011100000000000111100000000000011000100000000000010100000000000110000