1111111111011010111111111110000000000000000100001111111111111000000000000000010111111111110010010000000000001111000000000001000011111111111101001111111111110100111111111001001100000000000010110000000000001001000000000000010000000000000000000000000000000100000000000001000100000000001100100000000000011011111111111111010011111111111001101111111111110000000000000010011111111111111110111111111111010111
1111111111110000000000000010110000000000001100111111111111111110111111111110101011111111101110010000000000010100000000000001010100000000000001011111111111011001111111111011110000000000000100000000000000101000111111111111110011111111110101111111111111000011000000000001001000000000000111110000000000000111111111111110000111111111111110000000000001001100000000000001011000000000000100110000000000100001
1111111101100111111111111101100000000000000101110000000000110101111111111111111011111111011100111111111111110101000000000011101000000000001101101111111111011011111111111001011000000000000001010000000001001010000000000001100111111111110010001111111111100111000000000000011000000000000100111111111111110101000000000010100111111111111001111111111111111111000000000010010011111111111110011111111111101001
0000000000010000000000000001001111111111111111101111111111100000111111111010101100000000000010010000000000001011111111111111110011111111111100101111111101110001000000000000011000000000001011110000000000101000111111111110111011111111110010110000000000010101000000000010110000000000000000011111111110001101111111111111000000000000000101010000000000000001111111111110101111111111111101001111111111101000
1111111110010010111111111001011111111111111100100000000000100101111111111110110011111111110010001111111101101010111111111111111000000000001111010000000000010011111111111111010111111111111010010000000000011011000000000011111000000000000001111111111111011001111111111101111000000000000100010000000000011101111111111110111111111111110110001111111110111110111111111110011111111111110100110000000000001010
0000000000001011111111111111010000000000000110000000000000000101111111111100101011111111111001010000000000000000111111111110011111111111110101111111111111111001111111111110010111111111110100101111111111101001111111111001100111111111111010011111111111011000111111111100101111111111100101001111111111011100000000000001010000000000000000110000000000000111111111111101100100000000001000000000000000110011