1111111111011101111111111111111000000000000110010000000000010010000000000010111011111111101100101111111110111100111111111010110011111111111111001111111111101010000000000010100100000000000001111111111111010011000000000000001111111111111101100000000000001010000000000100110000000000001100111111111111111001111111111111001011111111101111001111111111001111000000000000101100000000000110101111111111101111
0000000000110101000000000000010011111111110101011111111111011000111111111100010100000000001000111111111111110001111111111100011111111111111000001111111111011111000000000001011011111111111111000000000000111011000000000100100100000000000011000000000000001100111111111111111000000000000101101111111111101111111111111100000111111111110010101111111111101100111111111101110011111111111100111111111111110100
0000000000100101000000000001011011111111110100001111111110110110111111111111010011111111111001100000000000001110000000000000011000000000000010101111111111000111111111111100010011111111110100101111111111111010000000000001000011111111100011001111111111011000111111111110000011111111110111000000000000101011000000000001100000000000000000100000000000010100000000000000010111111111111110011111111111110010
1111111111111101111111111100010111111111111000011111111111101111000000000000000011111111110100100000000000001011000000000001010000000000010010010000000001011111000000000100001100000000001110111111111111111100000000000011110011111111111100000000000000100111111111111110111011111111111001000000000000100001111111111110011111111111111011101111111111010010000000000000110100000000001001110000000000101110
1111111111000100111111111000001011111111010001000000000000101111000000000101110111111111110101011111111110110101000000000000100000000000000011000000000000011001111111111111101000000000001100100000000000110111111111111100100011111111100101001111111111100110000000000001010011111111110100010000000000000001111111111101100000000000000001010000000000001111000000000010001100000000000100000000000000001110
0000000000011010000000000011101100000000001100010000000000000111000000000001001011111111111010101111111111001010111111111111010011111111111001101111111111101000000000000000000011111111111010000000000000000101000000000010001011111111111101010000000000100100000000000001001100000000000010010000000000010110111111111110010100000000000110111111111111110000000000000001001111111111111100111111111111110100
0000000000010100111111111111110100000000000001001111111111101110000000000000110000000000001100101111111111111011111111111111100100000000000100010000000000000111000000000010010111111111110111001111111111001101111111111111110100000000001000110000000000111010111111111110010011111111111001110000000000001110000000000010011000000000000011110000000000011101000000000000101100000000001010001111111111110001
0000000000001001111111111101111111111111111101011111111110011100111111111001100100000000000100000000000000000001111111111110010011111111110101011111111110110100111111111101100000000000001100110000000000001000111111111111110011111111110111111111111111100001000000000001100100000000000010100000000000000101111111111010110000000000001001000000000000000000000000000001101111111111110101100000000000001111
0000000000010101000000000000010000000000000000001111111111101011000000000000001100000000000110111111111111101100000000000001100000000000000100010000000000011001111111111011000111111111111110110000000000001010111111111111101000000000000100011111111111001100111111111101101000000000000101000000000000010000000000000001011100000000000000110000000000011001111111111110011111111111110111001111111111010010
0000000000101011000000000000011011111111111111111111111111000100111111111001010100000000000011101111111111000011111111111111001111111111111001101111111111011110111111111111011000000000000001110000000001010110000000000100011000000000000010100000000000100101000000000011000011111111111100010000000000010110000000000000010011111111111010101111111111110100111111111111111000000000000010001111111110001110
1111111111111011111111111010011000000000001010000000000000011010111111111110011111111111111001001111111111001000111111111110100100000000001100010000000000101100000000000010111000000000001111001111111111010011000000000000000111111111111011110000000001011110111111111111000111111111111000011111111111010010111111111111000000000000000100111111111111110111111111111111010111111111111110100000000000111000
0000000000011111111111111001010011111111101101111111111110110100111111111011001111111111111011101111111110101000111111111110111000000000000100110000000000101000000000000001011100000000000101100000000000011101000000000100001011111111111101011111111111100111111111111011010000000000000011110000000000000011111111111101000111111111111011000000000000001011000000000000001000000000000111000000000000110001
0000000000000111000000000011001100000000000001010000000000111111000000000100110100000000011000110000000000010110000000000000000011111111111111000000000000000111111111111110100011111111111000101111111111110110111111111111100000000000000011001111111111110110000000000000011111111111111110110000000000100000000000000010110100000000000001110000000000110010000000000000101111111111111001011111111110110111
0000000000010000000000000001110011111111111111100000000000010010000000000000101011111111110011011111111111101111000000000000100000000000000111000000000000010001111111111110101100000000000100010000000000011110000000000001100000000000001101010000000000000001111111111111010000000000001010111111111111100100111111111110100100000000000101011111111111110101111111111110001011111111101010011111111101101111
0000000001000011000000000100001111111111111110001111111110111000111111110111011000000000001111100000000000010100000000000000101100000000000100001111111111010110111111111101101111111111111111110000000000000111000000000000100111111111111110011111111111101110000000000000010000000000000101110000000000111001000000000000101000000000000000101111111111111101111111111111010011111111111100010000000000001001
0000000000001010111111111111100000000000000100100000000000010100000000000000111000000000000111000000000000111011111111111110000111111111101111101111111111100000000000000010110000000000000011001111111111000101111111111101011111111111111000000000000000011010000000000010010011111111111111111111111111110000000000000000100100000000000110100000000000001000000000000000001000000000000010001111111111110011