0000000000001001000000000011001011111111111110011111111111110011111111111110010011111111110111010000000000000110000000000000111000000000000111000000000000000011000000000001111000000000000010010000000000011111000000000001111111111111111101010000000000010100000000000010111011111111111101001111111110110111111111111010111111111111111110100000000000001110000000000001000000000000000110111111111111111010
0000000001101000000000000100111111111111111000011111111111011101000000000010000011111111111111100000000000001100111111111111110011111111110101010000000000000001000000000001100000000000000110000000000000100100000000000011110100000000000010000000000001000001000000000000101011111111110111000000000000011100000000000100111011111111111001111111111110110010111111111101000111111111111101100000000000010101
0000000000011010111111111110111111111111111100101111111111110011000000000000110100000000000100010000000000001101000000000000010000000000010010010000000000111010000000000011001111111111111000101111111111111011000000000000010011111111111110100000000000000100111111111101111011111111110101111111111111111101000000000001100000000000000110101111111111110100111111111010010111111111011000111111111101010011
1111111111110010111111111101000011111111111110010000000000010111111111111110110011111111111001110000000000101110000000000000001000000000001110010000000000001010111111111111000100000000000001101111111111000110111111111100101011111111111111100000000000000101000000000100000000000000001110111111111111111100000000000001100000000000000001100000000010000000000000000100110011111111111001011111111110111011
1111111111010010111111111110010011111111111010101111111111011101000000000000100011111111111011101111111111111011000000000000110100000000000100101111111111101010111111111111010111111111101100100000000000101111000000000010110011111111110010101111111111111110000000000000001000000000001011000000000000111111000000000000101100000000001010100000000001001010000000000101101100000000010001001111111110110001
0000000000101110000000000000010011111111111010110000000000000011000000000010001100000000010000000000000000001110000000000010100000000000000111010000000000111110000000000000011111111111110101011111111111001100111111111111100011111111110111111111111111100010111111111010101111111111101010011111111110111010111111111110000111111111100000101111111110100011111111111101110100000000001000111111111111111110
1111111111101001111111111111111000000000000111110000000000010000111111111111001011111111111111111111111111100011000000000001010100000000000111101111111111111100000000000001001000000000000101100000000000111010000000000011001000000000001110101111111111111100000000000000100011111111111100110000000000000001000000000010111111111111011110111111111111010000111111111110011011111111110000101111111110100110
0000000000001111111111111111000000000000000100110000000001010000000000000010100100000000000100110000000000010100000000000000000111111111110111100000000000011111000000000100000100000000010000001111111111101000000000000010001000000000000100100000000000000100111111111111011111111111111110110000000000111101000000000101101111111111100011001111111110001010111111111100000000000000000100011111111111100110
0000000001000000111111111110111111111111111001101111111111110011000000000000101000000000011011111111111111011110111111111110101100000000011001100000000000100010000000000011001111111111110011110000000000001110000000000001110000000000001000111111111111001111111111111110111111111111111000011111111110111000111111111110001111111111110101001111111110110001111111111010001111111111100001101111111110100111
0000000000000010000000000000001000000000000100010000000000001011111111111010011000000000001001000000000000101101000000000011000000000000000011100000000000000111000000000010011100000000000101100000000001000110000000000001001011111111111110100000000000010010111111111101111011111111111111001111111111111001000000000010000111111111101001011111111110001101111111111101010111111111110101001111111111101011
0000000000001111111111111110010111111111110001011111111111110101111111111100000100000000000010111111111111110110000000000001110100000000000000001111111111111100111111111101111000000000000011001111111111100011111111111111110000000000001100000000000000011000000000000001000000000000000000000000000000100011000000000011010111111111111011010000000000101101000000000010110000000000001000010000000000000011
0000000000001010111111111110111011111111111000100000000000011100111111111111001111111111111111101111111111111001000000000011110111111111111010110000000001011000111111111111001100000000000111100000000000000001111111111110111111111111110110100000000000001011000000000000100100000000000000000000000000000111000000000010011000000000001001100000000000111100000000000000100100000000000000011111111111001110
1111111111100101111111111110001000000000000111100000000000100010000000000001000011111111110011111111111111111011000000000001110100000000000101101111111111100111000000000001000111111111111111110000000001001000000000000011101000000000001001000000000000001000000000000010101000000000000111110000000000001100111111111100011111111111111111100000000000100010000000000011111111111111110100101111111111010101
0000000000110100111111111111001011111111111111110000000000001110111111111110111100000000000100000000000000011110000000000000011100000000010001000000000000011000000000000000010111111111111101110000000000010001000000000001101111111111111011101111111110111011111111111100111011111111100010110000000000000101111111111111111111111111011010011111111110000011111111111101011100000000001011010000000000101001
1111111111101010111111111110110011111111111010000000000000001011111111111110000111111111111011100000000000100101000000000001000000000000000100001111111111110111000000000010110100000000001100000000000000001011000000000010011100000000000000000000000000010110000000000000000011111111111000011111111111101001000000000001010011111111100100001111111101010101111111111100001111111111110101111111111110000010
0000000000100010000000000001001100000000000101010000000000010110000000000001101100000000011000110000000000110011000000000001001000000000001110100000000000101001000000000010001100000000010100100000000000010000111111111101111100000000000101010000000000011101111111111101101011111111111011101111111111100111111111111100011011111111101111001111111101100111111111111010000111111111011001011111111101111001