1111111110111110111111110100010111111111111010110000000001000100111111111101111100000000001000000000000000100010111111111000110000000000000110011111111111100100000000000010010100000000001010111111111110110001000000000010111100000000000010001111111110011011111111111011000011111111110010100000000000011101111111111111111000000000001000000000000000001100111111111110011100000000010010110000000000001000
0000000001001000000000000011110100000000000011010000000001000101111111111110100100000000000001101111111111111110111111111101111100000000000101001111111111001010111111111111001011111111110101101111111111111011000000000001011100000000000010011111111111011100000000000010001000000000000010001111111111100100000000000000010100000000010000010000000000101011111111111110101011111111101011001111111111100001
0000000000000101000000000011001100000000001110000000000000100110111111111100010011111111110110000000000000000110111111111111110000000000000000010000000000010001111111111111110011111111101000000000000000011110000000000001000100000000001010010000000000011010000000000010100011111111110110101111111111110010111111111101010000000000000001111111111111100010111111111110100111111111101100001111111111000101
0000000000101111000000000000010100000000000111110000000000011010111111111100111000000000000101010000000000100010000000000010011100000000000000000000000001000100000000000001000011111111110110010000000000110111111111111111011000000000000110111111111111001001111111111111110000000000000001000000000000000001000000000000111011111111110011101111111111111000111111111110000100000000000011101111111110011011
0000000000010111111111111111100011111111110010101111111110010110111111111101110000000000001011110000000000110001111111111111111111111111111000100000000000010111000000000000100011111111101100110000000000110000111111111111110100000000001111000000000000010101111111111011110111111111111010101111111111000110000000000001001000000000000100000000000000111011111111111110110011111111111001111111111111110001
1111111110010111111111111000111100000000001110100000000000010000111111111110000111111111111010101111111111001011000000000100000100000000001000100000000000001010000000000000010011111111111100000000000000001000111111111111101111111111110100110000000000001001111111111101111111111111101101000000000000011001111111111110010100000000000100001111111111101001000000000000100000000000010011110000000001001000
1111111111101101111111111110001111111111111111100000000000101100111111111111011111111111111000010000000000101001000000000010111011111111111101111111111111110000111111111001110011111111111110011111111111011000111111111110111111111111111010110000000000010001111111111110010111111111101100111111111111000011000000000000111100000000000110000000000000010110111111111111101011111111110010010000000000100010
0000000000101110000000000100000111111111111010111111111110100011111111111011010011111111111110111111111111110011111111111110110000000000001010111111111111011110000000000011101000000000001001101111111111001111000000000001010100000000000101111111111111100110000000000010100000000000001110000000000000010100000000000010010011111111110111111111111111111101111111111110010011111111111011111111111111111100
1111111111010101000000000001101000000000001011110000000000010111111111111110110011111111111111100000000001000100111111111110100111111111110101110000000000010111000000000100111011111111101001000000000000010100000000000010010000000000000011010000000000111000000000000010001000000000000010001111111111100001111111111110001011111111111111101111111111000001111111111110110111111111110110000000000000000111
1111111111010011111111111011001111111111110110001111111111111101111111111101100011111111110111010000000000110111000000000010110011111111111101101111111111101010111111111101110000000000000101101111111111111010000000000000010111111111111100010000000000101000000000000001010111111111110011111111111110110001000000000000111011111111111101011111111111110110000000000000011011111111101101010000000000010010
1111111111010011111111111100011111111111100111101111111111101100111111111000101011111111111100110000000000010101000000000001010000000000001010001111111111100101000000000000101011111111111100111111111110111110000000000001100111111111111011011111111111111110111111111110000111111111111101000000000000011110000000000001111000000000000110111111111111101100000000000000111000000000000100011111111111110001
0000000001010101000000000011010000000000000110101111111111010110111111111011100111111111111010011111111111110000000000000001110011111111101101101111111111100011111111111111001111111111111101111111111111111011000000000010011100000000001100101111111111111100000000000001011011111111111010001111111111010001000000000000001100000000010000111111111111011100111111111111110011111111111111101111111111101100
1111111111011100111111111110111111111111110110010000000000010110000000000001100011111111111010011111111101111111111111111111011111111111111110101111111111001001000000000000001111111111111000011111111111110110111111111101110011111111100010011111111111010010111111111101011100000000000110001111111111101010000000000000111111111111111100101111111111111001111111111111101011111111111010000000000000100001
1111111111100000111111111111000000000000001001011111111111101100111111111100011000000000000001010000000000011100000000000000110111111111111100001111111111100010111111111110110111111111111111101111111111110011111111111101100011111111101100010000000000010000111111111101101011111111110100111111111111111001000000000011001011111111111110111111111111011101111111111111101100000000001011000000000001101110
1111111111010100111111111110010000000000001100110000000000100011000000000000010111111111111010010000000000100110111111111111110111111111111000111111111110101111111111111011100011111111110110100000000000001100111111111111010011111111011111011111111111101111000000000000000111111111111110001111111110101110111111111100110100000000001010110000000000010010111111111110100011111111111101010000000000010010
1111111111111010000000000001110000000000000000110000000000011010111111111111001111111111110100001111111111010100000000000010000000000000001110001111111111110111111111111110010111111111110111001111111110111011111111111111101000000000000101011111111111110010000000000011010100000000000010011111111101100001111111111100011011111111111000110000000000001011000000000000010011111111111100111111111111010101