1111111111101001000000000000101011111111111100101111111111100010111111110111100100000000000101001111111111110111000000000011110011111111110111011111111110011000000000000000111100000000010000000000000001100110000000000010010111111111110111000000000000000001000000000000101100000000010100100000000001110000000000000011100111111111101100101111111111110001000000000000010100000000001001111111111111101100