1111111111011001111111110110111011111111110011111111111111010000111111111101111011111111101100011111111111101110111111111111111011111111111111000000000000000011000000000000110100000000000100110000000000101111000000000001011000000000001001101111111111000000111111111101001011111111111000100000000000001100000000000001110011111111101010111111111111100000111111111111100100000000000111110000000000000011
1111111111111010000000000010000000000000001101010000000001011110000000000010100111111111110110111111111111100001111111111110001011111111111101000000000000010111111111111110000011111111111111110000000000010000111111111111101000000000001001111111111111111000000000000001000100000000000001111111111111011100111111111100111111111111111101110000000000010100111111111110000011111111101111011111111110000000
1111111111110110000000000001011100000000000110111111111111010100111111111110111011111111111010110000000000000111111111111111111100000000001110000000000000010100111111111001011011111111111001110000000000010111000000000001001111111111111100101111111111011010000000000001100111111111111011110000000000001111111111111110010000000000001100001111111111111011111111111111111111111111111110111111111111010111
1111111111011010000000000000001111111111111110110000000000010010111111111101110011111111110010001111111111100101111111111110111000000000000001001111111111010101000000000000110100000000000010000000000000101110000000000010100111111111110001111111111111010111000000000001110000000000001001101111111111111101111111111011011111111111111101110000000000011101111111111110011000000000000101011111111111000101
0000000000001101111111111110110100000000000000001111111111011110111111111010010111111111111111101111111111111101111111111110100111111111110101011111111111001011111111111110101100000000001111101111111111001110111111111101000000000000000000010000000000001000000000000011000000000000000001001111111110101110000000000001110100000000000011000000000000001100000000000010001000000000010011100000000001010111
0000000000011000111111111101110111111111111111010000000000000001111111111101010011111111101010111111111111000000000000000010001111111111111101110000000000100011111111111111101111111111110111000000000000100011000000000010110011111111110101100000000000001111000000000000000111111111111101010000000000100110000000000010000000000000000100101111111111011100111111111100111000000000000111100000000000110101
1111111111110011000000000010110000000000000101011111111111101001000000000000010111111111111110010000000000011010000000000010111000000000011100010000000001010000111111111101100111111111111001101111111110110101111111111010000011111111100110100000000000111101000000000010110000000000000011011111111111110000111111111101010000000000001100110000000000100010111111111110110011111111101001111111111110110010
1111111111100010111111111110111100000000000000111111111111101010111111111100111111111111111001110000000000000010000000000010000100000000001101001111111111111010111111111111100100000000000011010000000000011110000000000100010111111111111110000000000000001100000000000000110011111111111010001111111111000000111111111101110100000000010011101111111111100010111111111110001000000000000001100000000000010001
1111111111100010000000000001111000000000000010111111111111110100000000000000000011111111111101100000000000110011000000000010000000000000010101111111111111101101111111111111010111111111111001000000000000000001111111111101010111111111111100001111111111100011000000000001000000000000000100001111111111101000111111111110111000000000000011000000000000000001111111111101010111111111110111001111111110001110
0000000000110001111111111111010000000000000101010000000000010111000000000001111011111111111100100000000000011001000000000001001011111111111101110000000001011001000000000000110000000000000100001111111110111001111111111101010111111111110010010000000001000111000000000011101100000000000011010000000000011011111111111011010111111111111111101111111111111011111111111111001111111111100110011111111110101101
1111111110101000111111111100100011111111111111001111111111011010111111111011011111111111111101101111111111001000111111111111100111111111111010011111111111110001000000000000010100000000000000010000000000110000000000000000110100000000000000100000000000001010000000000010001000000000000100100000000000010010111111111111100011111111110101000000000000001101111111111110011000000000000101000000000000100000
1111111111101100111111111111011000000000000111000000000000100110000000000001000111111111111001011111111110111110111111111110001111111111111100101111111110111100111111111111111011111111110001110000000000100111000000000010100111111111110101011111111111011011000000000000010000000000001000101111111111110010111111111101010000000000000010100000000000010001111111111101011111111111101100110000000000000011
1111111111100010000000000011011100000000000001111111111111111110000000000000110100000000000011000000000000001110000000000001111111111111111110011111111111100001111111111111100100000000001101010000000000011110111111111110010100000000000110001111111111110110111111111101010100000000001011000000000000001100000000000001100000000000000000001111111111101010000000000010011000000000001001101111111111110000
0000000000100100111111111111100000000000001011000000000000101011000000000001001111111111110010110000000000000101000000000011110100000000001010010000000000000010111111111111001011111111111100011111111111111011000000000101000011111111111100101111111111110000111111111111010100000000000100110000000000000001000000000000001111111111111100011111111111001111111111111000110111111111110101001111111111000011
1111111111010101111111111110011100000000000110100000000000001000111111111111100111111111111011000000000000000101111111111111000100000000000111110000000001100001111111111110000111111111111111010000000000001010111111111011110111111111100110010000000000011111000000000010101000000000000011001111111111100000111111110111101011111111110111100000000000000010111111111101111111111111101111101111111110010100
1111111111111101000000000000011011111111111111100000000000100101111111111111010111111111101000101111111111000001111111111111001100000000001001010000000000100101111111111011011011111111110011101111111111001011111111111111010011111111110110010000000000010110000000000000111011111111111010010000000000000100000000000011000100000000010010100000000001000000111111111111111011111111110000101111111111111000