0000000000110000000000000100101011111111110110100000000000001011111111111111000011111111111110010000000000000111000000000010010000000000001100011111111111100110000000000010100000000000001100110000000001001101000000000011100000000000001101001111111110111000000000000001000000000000000101101111111111111011000000000001000011111111011110011111111110100100111111111011100011111111111001001111111110010101