0000000000010001111111111111101011111111101101111111111110101111111111111010101100000000000001110000000000001110111111111101110111111111110100001111111111011000000000000000010100000000001110010000000001010011000000000000011000000000000011101111111111111101000000000100100100000000100001000000000001101100000000000010011011111111101110101111111110101111111111111100111011111111110110101111111111110001
0000000000011010000000000001010100000000000000100000000000011111111111111111111011111111110010011111111111101101111111111110110111111111111100111111111111110101111111111111010000000000010001100000000001010111000000000011000111111111111111011111111111100000000000000000100100000000000110100000000000000000111111111101010111111111101111111111111111000000111111110111101111111111011110111111111110101011
1111111111001001000000000001011000000000000101001111111111110011111111111111000111111111111100000000000000111001000000000010110100000000000000011111111111110101111111111100001111111111110101100000000000000011000000000000110000000000010000101111111111100111111111111101100011111111110110100000000000010001000000000010000111111111101000101111111111010011111111111110001011111111110010001111111110111011
1111111111011100111111111111001000000000001100000000000000101111000000000000110011111111111010100000000000001111000000000000100100000000000001011111111111101111000000000000101011111111111111111111111111100100111111111111101100000000001010100000000000001001000000000001101100000000000011100000000000101111111111111111110011111111101110111111111110111111111111111011111011111111101111101111111110111000
1111111111110100000000000000011111111111111111101111111111101101000000000001111100000000000101010000000000010000111111111111011011111111110110111111111111010100111111111111101011111111101110111111111111011001111111111010100111111111111101011111111111101001000000000000101011111111111100111111111111111110000000000001001100000000000111110000000000001011111111111110100011111111101110001111111111111110
1111111111011010111111111111101100000000000001101111111111101001111111111111000011111111101110001111111111011001000000000000011111111111111100100000000000011000111111111101101111111111110100000000000000011001000000000010111000000000001010111111111110110001111111110111001011111111100101001111111110111101111111111000101111111111111100110000000000010110111111111111100100000000010001110000000000110100