0000000000001101000000000010110011111111110001100000000000101010000000000010001011111111110100101111111111011001111111111100011011111111110110001111111111100001111111111101100111111111100011101111111111110000000000000000000000000000000010110000000000000111000000000010011000000000001011010000000000100101000000000001110000000000011000000000000000011101111111111110011011111111101110010000000000001000
0000000001011100000000000001011111111111111101110000000000011001000000000000101000000000001111011111111111010011000000000000001011111111111101001111111111010011000000000010100011111111111101111111111111001111000000000001100000000000001010010000000000001011111111111111110000000000000001001111111111011010111111111101111111111111100100111111111111110001000000000001101000000000000011100000000000001100
1111111111000101000000000010110100000000001101010000000000001011111111111101111011111111111011010000000000001001111111111111101111111111111011110000000000001010000000000011000000000000010100100000000000101111000000000010001011111111110111101111111111101001111111111111011111111111111111110000000000001101000000000001010011111111111100111111111111100011000000000010110000000000000010000000000000001000
0000000000101101000000000100011000000000001101100000000000011010111111111111010100000000000101000000000000101110000000000000110100000000001110100000000000101000111111111101011000000000001011000000000000010011000000000011111000000000001001110000000000110101000000000010000000000000000000101111111111100001111111111110111011111111110001101111111110100011111111111111001100000000001010110000000000101110
0000000000101100111111111101110111111111101001100000000000000100111111111111100111111111111011101111111111010000111111111100110000000000000011110000000000111100000000000001100111111111110111011111111110100011111111110111010011111111111011000000000000111100111111111111000111111111110101001111111111000111111111111101111100000000001010011111111111101100111111111001111111111111100110110000000000010110
1111111111110101111111111100010111111111111110010000000000100000111111111110000111111111111000001111111111101001000000000000000100000000000001111111111111110110111111111100111000000000000101110000000000010111111111111111010111111111110110011111111111010110111111111101000000000000000001100000000000010110000000000000010100000000010001101111111111101111111111111100000011111111111010010000000000100000
1111111111110001111111111110101111111111111100011111111111111111000000000000000000000000010010111111111111011110111111111101011011111111110111100000000000111100000000000000011111111111111110001111111111110001111111111110000011111111111100000000000000000001111111111111111100000000001010110000000000111011111111111111111111111111111100110000000000011001111111111101111011111111111010101111111111110010
0000000000010010000000000000111011111111111011100000000000000010111111111110000011111111111110110000000000001001000000000000110100000000000000001111111111100101000000000000100100000000000000100000000000101101000000000000100111111111111100001111111111100001111111111101100000000000000100010000000001010100111111111001111111111111111111000000000000010101000000000010000111111111111111000000000000101001
1111111111110010111111111101001000000000000111001111111111100101111111111101101111111111110001110000000000100000000000000000001011111111111000100000000000001010111111111010110000000000001100101111111111011100000000000001010011111111111001111111111111011101111111111011100111111111101011100000000000010010000000000010010000000000010000000000000000101001000000000010101000000000000011011111111111010101
0000000000100000000000000001010011111111111010101111111110010101111111111100010100000000000101111111111111100110111111111111001011111111111110010000000000000101000000000001101111111111111110110000000000010000000000000001100100000000001010101111111110110000111111111111000011111111111000000000000000001011111111111111110000000000001001010000000000011010000000000000101011111111111100110000000000101111
0000000001001101111111111110101011111111111101010000000000011011000000000001111111111111110000011111111111100011111111111101001000000000010001110000000000100011111111111010011011111111110010101111111111101010000000000000011111111111101111110000000000100010000000000000011100000000000001001111111111010110111111111101000000000000001001101111111111101011111111111101111011111111111100100000000000000110
0000000000000011111111111111100100000000000011111111111111111011111111111011111100000000001000010000000000100101111111111111101100000000010000011111111110101011000000000010100100000000000011100000000000000001000000000101100000000000001100000000000000100001111111111111101000000000000000010000000000000001111111111100010100000000001011000000000000010000111111111111001011111111111100010000000000100100
1111111111111111111111111110100011111111111101110000000000001010000000000011010100000000001111110000000000001011111111111111110000000000000011100000000000011111000000000010110000000000001100001111111110110111111111111100110111111111110001000000000000100100000000000100011011111111110111001111111111111011000000000100010011111111101101111111111110111111111111111111111100000000000100100000000000100001
0000000000001111000000000010000000000000000000000000000000000001111111111101100111111111110101110000000000011010111111111111011000000000000010101111111111100001111111111100111011111111111100010000000000010110000000000000001000000000000011011111111111110010111111111100110000000000000001010000000000010010000000000000011100000000010000010000000000011010111111111111010011111111111010011111111111100111
0000000000101000000000000010010100000000001001011111111111110010111111111100100000000000010001100000000000010110111111111101101111111111101101100000000000001001000000000000010011111111111101111111111111101010111111111110110100000000000100101111111110101101000000000001011100000000000100110000000000101100000000000011100100000000000000001111111111111100111111111111011111111111111101111111111111111100
0000000000001000111111111110001011111111110110101111111111111011000000000010011100000000000010000000000000010010111111111110011111111111110000111111111111001101000000000011000100000000000100100000000000100000111111111100100111111111111100110000000000000101000000000001101111111111110110001111111111101100000000000010010000000000000000111111111111101101111111111101110000000000000011110000000000001101