1111111110110000111111111011011111111111111011011111111111001110000000000000011111111111111111001111111111011010000000000100101100000000000001001111111111111100000000000000111000000000000000000000000001001001000000000010111111111111111100000000000000101100000000000000111100000000000000100000000000010110111111111111000100000000011001110000000000000011111111111011111111111111110101101111111110100101
1111111111000011111111111100111111111111110000011111111110000010111111111100001011111111111010011111111111110000111111111101110111111111110110001111111111101001111111111000000100000000000000100000000000101111000000000000101000000000010001001111111110011011111111111111101000000000010000100000000000110110000000000011101100000000000010100000000000100110000000000001111000000000000001100000000000010000
1111111111111100111111111111110011111111111011011111111111100011000000000000101100000000000111110000000000100100000000000001010011111111111100111111111111101001000000000101001000000000010100011111111111101011111111111110111100000000010001110000000000001101000000000001110111111111111111111111111111110011000000000000011111111111110111111111111111100010000000000010001100000000000010111111111110110101
1111111111001110111111111101010011111111101100101111111111010111111111111100111111111111111111101111111111110011111111111110101100000000000111101111111111000110111111111111011100000000000011000000000000111000000000000100000000000000010101010000000000101110000000000001001000000000000111010000000000010111111111111111000000000000001110101111111111110011000000000011000000000000000000111111111111111101
0000000000000110000000000000100111111111111001000000000000100100111111111110011111111111111101001111111111100010111111111101011100000000000010010000000000110010000000000010110011111111110000111111111111001111000000000011000100000000001010101111111111111000111111111100010111111111110011110000000000010100000000000000110011111111111000101111111110010110111111111011101100000000001010111111111111111101
1111111111111100000000000010010111111111111101111111111111100110000000000001011011111111111100000000000000011100000000000010111111111111111101101111111111111100000000000001000100000000001100110000000000100001111111111111100111111111110110011111111111100111000000000010010100000000000110011111111110111011111111111011011100000000010011100000000000100110000000000001010011111111110000001111111111000110
0000000000011111000000000000010011111111111010101111111110111000000000000001000100000000000000100000000001001011111111111111100111111111111100100000000000011100111111111101000000000000000010001111111111110101111111111110110111111111110011010000000000011110000000000011011100000000001001000000000000110000111111111111101111111111101010101111111111011111000000000000111000000000001010010000000001000011
1111111111110110000000000010000000000000000010001111111111000010111111111110111100000000001101000000000000000001111111111011101011111111101111011111111110110000111111111111111111111111110001111111111111101110111111111110010100000000000000111111111111101111111111111101011111111111111000001111111111100011000000000011100100000000011000001111111111110011111111111100100100000000000000110000000000001010
1111111111010010000000000001111100000000000011011111111111100110111111111111010000000000000110000000000000111011000000000000101011111111111110101111111111011011111111111100111000000000001110001111111111101011111111111001111111111111111101010000000000001100000000000010011000000000000010010000000000011011111111111111010100000000010001010000000001010011000000000010001000000000000111000000000000001000
1111111111110010111111111111010111111111110010010000000000000001000000001001101111111111011110011111111110011100111111111110011000000000000110000000000000001001111111111011111011111111110010111111111111011100000000000001000000000000000011010000000000011100000000000011011100000000001000010000000001000000000000000011001100000000001001000000000000001110000000000000101000000000000110001111111111110110
1111111110001110111111111010000111111111111011111111111111010011111111111010111111111111111110101111111111001101000000000000101011111111111101011111111111001001000000000000111000000000001001100000000000001110111111111111101100000000000011000000000000011011111111111111011011111111101010000000000000010000111111111111100000000000010001111111111110111111111111111011111011111111110010101111111111100110
1111111110010100000000000000100011111111110111111111111111111101111111111111111011111111111101110000000000100000111111111110111011111111111011010000000000100110000000000100110000000000000010111111111111000010111111111010011000000000000001000000000000101100111111111110100111111111111001110000000000001111000000000011000100000000001100001111111111001101111111111111001011111111111101110000000000011011
1111111111010111000000000000010100000000000011101111111111100100111111111111011100000000000111110000000000100101111111111101110000000000000011000000000010001110111111111111111100000000000100111111111110100010000000000000111000000000010010010000000000110101111111111101010011111111110101111111111111111101111111111110110000000000001101010000000000000111111111111010011111111111111110010000000000101100
1111111111011111000000000000111100000000001001000000000000011101000000000111111111111111110010001111111111011101000000000010011000000000000111100000000000111100000000000100100000000000010101111111111111100110000000000001100100000000001010000000000000001001000000000000000100000000001001101111111111101110111111111111011000000000001101101111111111111000111111111110110111111111101111111111111111101010
0000000000001100000000000000101111111111101110001111111111000010000000000100000100000000000100011111111111101101111111111110110000000000000000100000000001001110111111111100110000000000000001011111111111010001111111111111001000000000001111000000000000111011000000000011100000000000000111100000000000100000000000000010000011111111111110111111111111100100111111111111011000000000000111000000000001000000
0000000000001000000000000001100000000000001001000000000000100000000000000011011100000000001001100000000000100110000000000000100000000000000001011111111111110001111111111111110011111111111110111111111110101101111111110111110111111111101011011111111110001011111111111101001111111111111111100000000000100100111111111110001111111111111011110000000000100001000000000011110000000000001011100000000000110011