0000000000011011000000000001100000000000001100001111111111111011111111111101100011111111110111111111111110110000000000000000100000000000001000001111111111101111000000000000001111111111110111000000000000000101000000000100110000000000000010100000000000010001000000000000001111111111111010011111111111111011111111111110011000000000000011010000000000001101111111111101100111111111111100101111111111101010
0000000000001001000000000001000100000000001010000000000000000011111111111100100111111111111100101111111111001010111111111111100111111111111110001111111111101100000000000010000111111111111111001111111111011011111111111110110111111111111011000000000000000011111111111110011111111111110111011111111111111100000000000000011111111111111100100000000000110011000000000000100100000000000011010000000000011011
0000000001000010111111111011100011111111110010010000000000010110111111111111000000000000000100011111111110101100000000000011000100000000001101010000000000010110111111111101001100000000010000100000000001011100111111111111111011111111100000000000000000110000000000000100100111111111110111001111111110000011111111111110111111111111111110001111111111000110111111111010001000000000000011000000000000001011
0000000001000111111111111011100111111111110101011111111111011111111111111111000011111111100100001111111111010101000000000011100000000000001101111111111111010011111111111110011100000000001111110000000001110001000000000001111111111111011011000000000000111101000000000011011011111111110000111111111110101100111111111110100011111111111111111111111110110011111111110100100011111111110100001111111110111111
1111111111000100111111111000000011111111111011000000000000100110000000000001111111111111111110001111111111010000111111111111100100000000001101010000000001010101111111111001010011111111101001110000000000001010000000000000100000000000000100001111111111000001000000000101001000000000000011001111111110111100111111111110011000000000000010001111111111111001111111111011110111111111110101110000000000101011
0000000000010100111111111010111100000000000010101111111111111001111111111110101011111111101111100000000000101011000000000011110011111111111011011111111110111001000000000001000000000000010000100000000000000011111111111000111011111111110100100000000000100011111111111110001011111111100110000000000000010000000000000010000011111111110101111111111110111001000000000001100100000000010001101111111111111110