memory_initialization_radix=2;
memory_initialization_vector=
0000000000110000000000000100101011111111110110000000000000001011111111111110111111111111111101110000000000000111000000000010010000000000001100011111111111100101000000000010100000000000001100110000000001001101000000000011100000000000001101001111111110110111000000000001000000000000000101101111111111111001000000000001000011111111011101111111111110100010111111111011011111111111111000111111111110010011;